<unk>	0
▁t	-0
<bos>	0
<eos>	0
he	-1
▁a	-2
in	-3
▁the	-4
▁w	-5
▁s	-6
▁o	-7
re	-8
nd	-9
▁h	-10
er	-11
ou	-12
▁b	-13
is	-14
at	-15
ed	-16
▁m	-17
▁f	-18
it	-19
▁c	-20
en	-21
▁and	-22
▁of	-23
on	-24
▁to	-25
ing	-26
es	-27
▁th	-28
▁d	-29
or	-30
an	-31
ll	-32
ar	-33
▁p	-34
as	-35
▁he	-36
▁in	-37
▁l	-38
▁n	-39
▁I	-40
om	-41
▁ha	-42
le	-43
▁g	-44
▁be	-45
ot	-46
▁wh	-47
ic	-48
ow	-49
▁e	-50
im	-51
id	-52
▁T	-53
▁y	-54
ut	-55
se	-56
ve	-57
st	-58
ly	-59
▁that	-60
▁on	-61
▁re	-62
ld	-63
▁was	-64
ent	-65
▁his	-66
▁you	-67
ce	-68
gh	-69
ith	-70
et	-71
▁it	-72
ay	-73
ion	-74
al	-75
▁with	-76
ir	-77
▁u	-78
▁A	-79
ver	-80
ad	-81
▁as	-82
▁is	-83
ur	-84
▁st	-85
▁for	-86
▁not	-87
▁r	-88
▁The	-89
ght	-90
▁we	-91
▁sa	-92
▁had	-93
her	-94
ch	-95
ill	-96
▁an	-97
▁at	-98
▁him	-99
▁M	-100
▁H	-101
ain	-102
oo	-103
ri	-104
ct	-105
▁se	-106
▁sh	-107
▁her	-108
am	-109
ich	-110
▁S	-111
ter	-112
▁me	-113
ould	-114
▁W	-115
ke	-116
all	-117
ro	-118
if	-119
▁which	-120
ess	-121
red	-122
▁de	-123
▁so	-124
us	-125
il	-126
▁B	-127
▁have	-128
▁fr	-129
ight	-130
▁C	-131
▁all	-132
ore	-133
▁my	-134
▁su	-135
▁but	-136
▁said	-137
pe	-138
▁P	-139
ac	-140
▁by	-141
ard	-142
▁con	-143
▁who	-144
ome	-145
▁from	-146
▁k	-147
ant	-148
▁this	-149
ul	-150
qu	-151
ge	-152
▁do	-153
and	-154
▁whe	-155
res	-156
th	-157
▁she	-158
▁v	-159
ble	-160
▁or	-161
▁ex	-162
nt	-163
ous	-164
ust	-165
▁man	-166
ers	-167
ap	-168
▁they	-169
est	-170
▁one	-171
▁are	-172
sel	-173
▁ne	-174
▁up	-175
▁He	-176
os	-177
▁were	-178
▁N	-179
▁al	-180
ist	-181
ast	-182
our	-183
▁fe	-184
▁ch	-185
em	-186
▁li	-187
pp	-188
ol	-189
ound	-190
very	-191
▁will	-192
ation	-193
▁them	-194
ind	-195
▁D	-196
▁no	-197
ong	-198
ra	-199
out	-200
▁F	-201
ood	-202
art	-203
▁And	-204
▁int	-205
▁there	-206
ie	-207
▁kn	-208
ate	-209
ak	-210
▁le	-211
▁O	-212
▁ar	-213
un	-214
self	-215
one	-216
▁com	-217
um	-218
▁their	-219
▁G	-220
ig	-221
ort	-222
▁Th	-223
▁ab	-224
▁go	-225
ame	-226
ost	-227
▁when	-228
ven	-229
ose	-230
▁j	-231
au	-232
▁been	-233
▁L	-234
ther	-235
▁your	-236
ked	-237
▁would	-238
▁what	-239
▁out	-240
ough	-241
▁wor	-242
hed	-243
▁Y	-244
▁tr	-245
ide	-246
▁un	-247
ell	-248
▁ag	-249
▁E	-250
▁sp	-251
ity	-252
reat	-253
te	-254
ive	-255
own	-256
ine	-257
▁am	-258
ck	-259
urn	-260
▁R	-261
▁pl	-262
▁more	-263
▁Wh	-264
ount	-265
ace	-266
od	-267
ure	-268
ep	-269
ved	-270
pl	-271
▁qu	-272
ag	-273
▁if	-274
ack	-275
itt	-276
▁pro	-277
ass	-278
▁into	-279
hing	-280
▁It	-281
ice	-282
op	-283
▁then	-284
el	-285
nder	-286
ance	-287
▁other	-288
▁tim	-289
▁V	-290
able	-291
▁pr	-292
ake	-293
▁af	-294
▁some	-295
▁has	-296
▁any	-297
▁tw	-298
▁But	-299
ry	-300
pt	-301
▁im	-302
ars	-303
▁br	-304
▁know	-305
▁could	-306
▁now	-307
ue	-308
▁hand	-309
ies	-310
ire	-311
ab	-312
▁can	-313
ove	-314
▁ad	-315
ect	-316
▁like	-317
▁J	-318
▁cl	-319
▁did	-320
▁us	-321
ought	-322
▁ro	-323
▁bl	-324
other	-325
way	-326
are	-327
▁gr	-328
▁dis	-329
ite	-330
ade	-331
▁only	-332
▁en	-333
▁see	-334
▁loo	-335
▁say	-336
ress	-337
cc	-338
▁again	-339
fore	-340
ied	-341
ence	-342
ang	-343
ather	-344
age	-345
ving	-346
ree	-347
▁very	-348
ert	-349
▁than	-350
..	-351
▁over	-352
wn	-353
▁fl	-354
▁time	-355
ious	-356
ier	-357
▁too	-358
▁po	-359
▁day	-360
▁should	-361
ile	-362
ish	-363
ink	-364
▁about	-365
▁off	-366
ond	-367
ered	-368
ment	-369
ings	-370
ated	-371
▁our	-372
ach	-373
ans	-374
ud	-375
ves	-376
ally	-377
▁must	-378
per	-379
▁himself	-380
ren	-381
▁fir	-382
▁every	-383
▁rem	-384
▁ey	-385
▁great	-386
▁long	-387
▁thr	-388
ary	-389
ward	-390
ful	-391
▁two	-392
ff	-393
me	-394
ittle	-395
▁how	-396
▁str	-397
▁per	-398
▁good	-399
▁sm	-400
▁pe	-401
▁des	-402
ness	-403
▁may	-404
▁under	-405
ions	-406
ci	-407
▁before	-408
ath	-409
▁down	-410
ife	-411
▁little	-412
▁pre	-413
anc	-414
▁old	-415
▁gl	-416
ors	-417
iz	-418
▁its	-419
ft	-420
▁cont	-421
ont	-422
▁fo	-423
ave	-424
ince	-425
▁after	-426
▁first	-427
ise	-428
▁count	-429
end	-430
▁beg	-431
led	-432
▁thought	-433
▁seem	-434
ull	-435
▁spe	-436
si	-437
uch	-438
▁these	-439
ds	-440
▁You	-441
cl	-442
▁upon	-443
▁even	-444
▁arm	-445
▁made	-446
▁In	-447
▁men	-448
▁fa	-449
ried	-450
▁such	-451
ild	-452
▁bec	-453
ng	-454
▁shall	-455
ign	-456
▁co	-457
▁where	-458
▁let	-459
▁just	-460
▁pass	-461
ons	-462
▁head	-463
▁went	-464
ouse	-465
▁way	-466
king	-467
▁own	-468
▁came	-469
▁ret	-470
▁What	-471
▁eyes	-472
ip	-473
hen	-474
rew	-475
orn	-476
▁ob	-477
▁res	-478
▁part	-479
ks	-480
ened	-481
▁come	-482
▁ent	-483
▁fri	-484
▁bo	-485
▁turn	-486
▁Then	-487
▁sc	-488
▁well	-489
▁still	-490
▁back	-491
▁much	-492
ats	-493
▁think	-494
▁here	-495
▁She	-496
llow	-497
omet	-498
▁those	-499
row	-500
▁On	-501
▁bet	-502
▁without	-503
int	-504
▁same	-505
ber	-506
▁op	-507
ady	-508
▁through	-509
ty	-510
▁att	-511
ord	-512
we	-513
ick	-514
▁might	-515
▁This	-516
▁imp	-517
▁comp	-518
▁ho	-519
▁away	-520
▁ap	-521
▁ind	-522
ss	-523
▁sl	-524
▁house	-525
iv	-526
▁never	-527
▁acc	-528
ared	-529
ark	-530
ily	-531
▁Ch	-532
▁Pr	-533
▁father	-534
▁comm	-535
▁There	-536
ale	-537
▁young	-538
▁cons	-539
▁car	-540
▁life	-541
▁pos	-542
ase	-543
▁somet	-544
ause	-545
▁pres	-546
aking	-547
▁last	-548
pect	-549
▁St	-550
▁call	-551
ER	-552
thing	-553
▁happ	-554
less	-555
so	-556
air	-557
▁ser	-558
ean	-559
▁nothing	-560
▁ye	-561
oth	-562
oment	-563
▁being	-564
cess	-565
▁moment	-566
▁friend	-567
av	-568
▁most	-569
▁saw	-570
hes	-571
▁No	-572
▁They	-573
▁wr	-574
▁lo	-575
▁bel	-576
▁night	-577
▁room	-578
▁make	-579
bl	-580
▁door	-581
▁wat	-582
ory	-583
arm	-584
▁tell	-585
▁ord	-586
ru	-587
▁app	-588
▁left	-589
▁end	-590
ult	-591
▁another	-592
▁mar	-593
fe	-594
man	-595
▁seemed	-596
▁took	-597
▁Al	-598
ener	-599
▁repl	-600
▁dist	-601
▁face	-602
▁vo	-603
▁K	-604
▁At	-605
atter	-606
▁em	-607
ained	-608
▁light	-609
vent	-610
ced	-611
▁rep	-612
▁get	-613
▁When	-614
▁once	-615
▁right	-616
▁though	-617
▁ke	-618
▁1	-619
lt	-620
ict	-621
▁take	-622
▁Yes	-623
ished	-624
orm	-625
▁rec	-626
▁return	-627
ertain	-628
▁child	-629
▁found	-630
▁yet	-631
ret	-632
▁heard	-633
igh	-634
▁form	-635
ants	-636
▁appe	-637
wards	-638
ari	-639
▁while	-640
▁cour	-641
ever	-642
ction	-643
▁te	-644
▁wom	-645
ently	-646
ix	-647
ew	-648
▁We	-649
▁Mr	-650
▁As	-651
AP	-652
ither	-653
aint	-654
iss	-655
▁replied	-656
ef	-657
ys	-658
amp	-659
den	-660
▁looked	-661
TER	-662
▁asked	-663
▁three	-664
▁ple	-665
aught	-666
▁inst	-667
ople	-668
▁heart	-669
▁ear	-670
▁So	-671
▁Pier	-672
ian	-673
▁exp	-674
og	-675
▁wa	-676
sw	-677
▁sw	-678
▁hands	-679
ens	-680
ov	-681
ition	-682
ock	-683
▁mind	-684
▁began	-685
▁sec	-686
oy	-687
ways	-688
▁whole	-689
▁place	-690
▁pers	-691
▁whom	-692
▁something	-693
▁CH	-694
ations	-695
▁That	-696
▁side	-697
▁wind	-698
▁la	-699
APTER	-700
▁round	-701
ha	-702
ower	-703
▁ter	-704
lf	-705
▁feel	-706
ject	-707
▁CHAPTER	-708
▁put	-709
▁love	-710
▁answ	-711
▁people	-712
▁seen	-713
▁"	-714
▁U	-715
ange	-716
▁cr	-717
ched	-718
ls	-719
▁rest	-720
ps	-721
▁sil	-722
▁ass	-723
▁inf	-724
▁gi	-725
▁Fr	-726
ning	-727
▁many	-728
▁gener	-729
▁gu	-730
▁add	-731
▁always	-732
▁follow	-733
▁set	-734
▁supp	-735
▁Pierre	-736
▁sur	-737
▁underst	-738
▁look	-739
▁dra	-740
oke	-741
▁ac	-742
▁give	-743
▁war	-744
▁Val	-745
▁want	-746
▁To	-747
▁Well	-748
▁ins	-749
▁sou	-750
▁beh	-751
▁felt	-752
▁also	-753
ail	-754
ired	-755
▁each	-756
sible	-757
ows	-758
▁If	-759
here	-760
▁reg	-761
▁tre	-762
rist	-763
uck	-764
▁hor	-765
▁nat	-766
▁sat	-767
▁against	-768
▁sle	-769
▁ever	-770
get	-771
cept	-772
aken	-773
▁cap	-774
▁soon	-775
▁new	-776
▁find	-777
▁conf	-778
▁tal	-779
ised	-780
ook	-781
ief	-782
▁bre	-783
▁having	-784
ined	-785
▁His	-786
▁dif	-787
▁point	-788
▁ev	-789
most	-790
les	-791
▁voice	-792
ating	-793
ield	-794
iness	-795
▁things	-796
ged	-797
▁Oh	-798
ner	-799
▁dear	-800
act	-801
att	-802
ody	-803
▁going	-804
▁told	-805
▁My	-806
als	-807
▁aff	-808
...	-809
▁For	-810
▁Prince	-811
▁words	-812
▁cann	-813
▁thing	-814
▁near	-815
▁God	-816
▁mother	-817
ple	-818
vers	-819
aps	-820
▁hu	-821
▁turned	-822
cy	-823
ey	-824
▁name	-825
▁far	-826
▁pur	-827
li	-828
▁sub	-829
▁Ah	-830
▁done	-831
ern	-832
▁death	-833
▁pleas	-834
ates	-835
▁occ	-836
az	-837
▁because	-838
▁son	-839
ical	-840
cei	-841
ole	-842
▁Be	-843
ting	-844
▁world	-845
▁certain	-846
eth	-847
ween	-848
▁mon	-849
rench	-850
ank	-851
ute	-852
▁both	-853
▁How	-854
ides	-855
▁cle	-856
▁Mad	-857
▁quite	-858
▁fall	-859
▁inter	-860
▁hour	-861
ister	-862
ited	-863
▁ship	-864
▁cried	-865
▁hum	-866
ung	-867
▁rel	-868
ery	-869
▁morn	-870
ling	-871
▁ref	-872
▁read	-873
▁dr	-874
osed	-875
uth	-876
▁does	-877
▁myself	-878
▁between	-879
▁Now	-880
▁adv	-881
▁knew	-882
ying	-883
its	-884
oub	-885
oud	-886
up	-887
ins	-888
▁present	-889
aut	-890
ains	-891
selves	-892
men	-893
rest	-894
▁vis	-895
▁bed	-896
▁contin	-897
ial	-898
aven	-899
▁ste	-900
▁morning	-901
▁ide	-902
ross	-903
▁called	-904
▁inc	-905
▁fore	-906
ets	-907
▁hear	-908
▁word	-909
▁mo	-910
▁An	-911
▁sk	-912
ued	-913
ures	-914
▁dead	-915
ured	-916
▁nor	-917
▁full	-918
▁open	-919
▁order	-920
ott	-921
xt	-922
arius	-923
dden	-924
▁French	-925
pped	-926
▁years	-927
▁el	-928
▁bar	-929
▁stand	-930
▁sort	-931
▁kind	-932
▁work	-933
ug	-934
▁Mor	-935
oc	-936
ressed	-937
▁towards	-938
rave	-939
ason	-940
▁hel	-941
▁gave	-942
▁home	-943
▁ph	-944
▁All	-945
▁half	-946
▁Mon	-947
ering	-948
▁Marius	-949
▁act	-950
▁among	-951
▁sudden	-952
▁care	-953
▁understand	-954
owed	-955
▁mean	-956
▁fam	-957
▁quest	-958
▁cannot	-959
▁hard	-960
oun	-961
▁poor	-962
ual	-963
▁dark	-964
ention	-965
cri	-966
▁passed	-967
ular	-968
▁behind	-969
arge	-970
▁almost	-971
▁few	-972
▁hon	-973
ces	-974
▁air	-975
▁sir	-976
▁four	-977
ene	-978
▁herself	-979
ready	-980
▁matter	-981
▁gir	-982
▁che	-983
▁woman	-984
▁true	-985
▁stood	-986
▁dre	-987
ts	-988
▁got	-989
▁others	-990
▁aw	-991
▁since	-992
▁lay	-993
▁soul	-994
▁del	-995
▁disc	-996
▁anything	-997
▁suff	-998
▁alone	-999
▁arms	-1000
▁thy	-1001
▁sound	-1002
▁sent	-1003
▁taken	-1004
▁es	-1005
▁cur	-1006
▁thus	-1007
▁already	-1008
▁sun	-1009
ached	-1010
▁Nats	-1011
▁better	-1012
aced	-1013
▁speak	-1014
▁stre	-1015
▁belie	-1016
▁wal	-1017
ub	-1018
ted	-1019
▁sim	-1020
▁bro	-1021
▁serv	-1022
▁sold	-1023
▁black	-1024
II	-1025
▁letter	-1026
▁best	-1027
▁dire	-1028
▁sing	-1029
ceived	-1030
ents	-1031
▁fire	-1032
▁min	-1033
▁sign	-1034
▁days	-1035
▁small	-1036
used	-1037
▁fear	-1038
gth	-1039
ible	-1040
▁wall	-1041
▁Jean	-1042
▁sleep	-1043
▁offic	-1044
▁ra	-1045
▁With	-1046
▁longer	-1047
aster	-1048
▁person	-1049
illed	-1050
old	-1051
orrow	-1052
▁dont	-1053
uc	-1054
haps	-1055
▁inv	-1056
▁fell	-1057
▁thir	-1058
▁Andrew	-1059
tain	-1060
▁Why	-1061
▁whose	-1062
▁heaven	-1063
▁prin	-1064
▁Natsha	-1065
rel	-1066
▁dep	-1067
▁power	-1068
med	-1069
bert	-1070
▁One	-1071
ably	-1072
▁fur	-1073
▁mis	-1074
▁white	-1075
▁Vill	-1076
▁cor	-1077
ully	-1078
▁beaut	-1079
▁Monte	-1080
tend	-1081
▁Crist	-1082
▁command	-1083
▁Em	-1084
aughter	-1085
▁eff	-1086
▁along	-1087
▁Do	-1088
ately	-1089
▁everything	-1090
▁Rost	-1091
ph	-1092
ized	-1093
▁ran	-1094
▁water	-1095
eed	-1096
▁gent	-1097
▁brought	-1098
▁however	-1099
uring	-1100
▁fact	-1101
efort	-1102
HE	-1103
na	-1104
aring	-1105
irt	-1106
▁less	-1107
▁ground	-1108
▁Valj	-1109
▁till	-1110
▁saying	-1111
▁Villefort	-1112
oset	-1113
▁art	-1114
▁Cristo	-1115
aris	-1116
aces	-1117
▁hus	-1118
▁army	-1119
▁express	-1120
pr	-1121
ety	-1122
ash	-1123
▁doub	-1124
▁run	-1125
▁sea	-1126
▁high	-1127
▁pol	-1128
▁X	-1129
▁red	-1130
▁reason	-1131
▁cond	-1132
▁real	-1133
aid	-1134
▁perf	-1135
ater	-1136
▁general	-1137
▁2	-1138
riage	-1139
▁batt	-1140
ceed	-1141
▁keep	-1142
akes	-1143
00	-1144
▁det	-1145
▁second	-1146
▁ir	-1147
ctor	-1148
▁unt	-1149
iting	-1150
▁themselves	-1151
ken	-1152
iled	-1153
▁ill	-1154
▁whether	-1155
▁abs	-1156
anger	-1157
▁chief	-1158
▁list	-1159
▁wish	-1160
ines	-1161
▁step	-1162
▁wife	-1163
▁sure	-1164
▁evening	-1165
▁looking	-1166
app	-1167
fully	-1168
▁ang	-1169
▁given	-1170
ract	-1171
▁Valjean	-1172
▁Not	-1173
▁arri	-1174
▁rather	-1175
▁returned	-1176
▁help	-1177
▁human	-1178
▁large	-1179
▁adm	-1180
▁bes	-1181
▁Coset	-1182
▁leave	-1183
▁prop	-1184
▁country	-1185
ense	-1186
land	-1187
rible	-1188
▁answered	-1189
iers	-1190
▁ext	-1191
▁need	-1192
▁enough	-1193
▁gentle	-1194
imes	-1195
▁opp	-1196
▁hold	-1197
gether	-1198
▁together	-1199
▁obs	-1200
tered	-1201
▁suddenly	-1202
br	-1203
rent	-1204
une	-1205
▁Rostv	-1206
bed	-1207
▁dec	-1208
oll	-1209
▁why	-1210
▁friends	-1211
▁enem	-1212
▁lau	-1213
▁appro	-1214
▁sight	-1215
▁gone	-1216
▁table	-1217
▁deep	-1218
day	-1219
fort	-1220
▁feet	-1221
▁sn	-1222
ndred	-1223
▁fin	-1224
ude	-1225
ances	-1226
▁draw	-1227
▁question	-1228
▁thou	-1229
wh	-1230
ousand	-1231
ison	-1232
ching	-1233
▁course	-1234
ny	-1235
lars	-1236
ments	-1237
▁next	-1238
▁prom	-1239
▁Ill	-1240
▁spoke	-1241
▁entered	-1242
▁hundred	-1243
▁bus	-1244
▁cir	-1245
iew	-1246
▁earth	-1247
▁gold	-1248
anglars	-1249
▁live	-1250
▁sister	-1251
▁thousand	-1252
aw	-1253
aim	-1254
▁whale	-1255
ians	-1256
▁remem	-1257
▁Is	-1258
ided	-1259
▁mid	-1260
▁body	-1261
▁close	-1262
▁Count	-1263
▁pri	-1264
▁land	-1265
oney	-1266
▁evid	-1267
ussi	-1268
▁case	-1269
▁wo	-1270
▁Danglars	-1271
▁lost	-1272
▁cal	-1273
▁El	-1274
▁brother	-1275
▁def	-1276
▁div	-1277
owing	-1278
▁Paris	-1279
▁blood	-1280
▁times	-1281
arn	-1282
▁dro	-1283
▁Cosette	-1284
▁swe	-1285
▁around	-1286
▁tri	-1287
by	-1288
▁ut	-1289
▁perhaps	-1290
▁dest	-1291
▁really	-1292
ities	-1293
▁girl	-1294
▁hope	-1295
che	-1296
ool	-1297
the	-1298
▁inte	-1299
▁front	-1300
▁ask	-1301
right	-1302
mb	-1303
▁bur	-1304
▁dev	-1305
▁num	-1306
▁expect	-1307
▁char	-1308
▁diffe	-1309
▁Madame	-1310
▁believe	-1311
du	-1312
▁king	-1313
▁foot	-1314
▁appear	-1315
▁expl	-1316
▁strong	-1317
▁either	-1318
▁use	-1319
▁above	-1320
▁smile	-1321
▁strange	-1322
▁least	-1323
▁opened	-1324
▁fellow	-1325
▁Ar	-1326
▁interest	-1327
▁idea	-1328
▁continued	-1329
▁move	-1330
▁indeed	-1331
ec	-1332
▁road	-1333
▁ru	-1334
ution	-1335
cend	-1336
▁eye	-1337
ane	-1338
ois	-1339
fic	-1340
ape	-1341
ising	-1342
▁held	-1343
▁doubt	-1344
▁yourself	-1345
ility	-1346
ually	-1347
ime	-1348
ards	-1349
▁circ	-1350
▁wound	-1351
▁hur	-1352
▁become	-1353
▁wood	-1354
▁short	-1355
peri	-1356
▁Gree	-1357
▁possible	-1358
▁six	-1359
▁fight	-1360
▁horse	-1361
▁until	-1362
▁manner	-1363
airs	-1364
▁Let	-1365
▁Tro	-1366
▁spr	-1367
▁mist	-1368
itting	-1369
▁battle	-1370
▁met	-1371
▁fort	-1372
▁itself	-1373
▁necess	-1374
overed	-1375
▁nature	-1376
▁Nap	-1377
▁happy	-1378
▁ca	-1379
▁gre	-1380
enty	-1381
ider	-1382
band	-1383
▁dri	-1384
ased	-1385
▁Russi	-1386
▁law	-1387
▁tou	-1388
▁begin	-1389
▁ve	-1390
▁col	-1391
▁imag	-1392
▁therefore	-1393
▁children	-1394
▁coming	-1395
ne	-1396
▁eas	-1397
▁crow	-1398
▁five	-1399
▁clear	-1400
▁Albert	-1401
▁mad	-1402
▁breat	-1403
oss	-1404
itted	-1405
▁excl	-1406
ror	-1407
ushed	-1408
▁added	-1409
gs	-1410
▁Rue	-1411
▁sum	-1412
▁else	-1413
▁shout	-1414
▁compan	-1415
ught	-1416
▁joy	-1417
▁window	-1418
▁esc	-1419
▁play	-1420
▁remained	-1421
▁bu	-1422
ils	-1423
▁hast	-1424
aving	-1425
fter	-1426
▁money	-1427
▁mer	-1428
anced	-1429
▁hist	-1430
▁start	-1431
▁daughter	-1432
▁cut	-1433
iously	-1434
▁became	-1435
kh	-1436
▁field	-1437
ns	-1438
osc	-1439
ific	-1440
otion	-1441
▁Se	-1442
sses	-1443
▁truth	-1444
▁husband	-1445
erv	-1446
ric	-1447
▁Sh	-1448
arch	-1449
▁oft	-1450
ection	-1451
▁Emper	-1452
▁within	-1453
ia	-1454
▁Napole	-1455
iver	-1456
▁Eliz	-1457
▁cold	-1458
▁quick	-1459
be	-1460
▁hair	-1461
▁says	-1462
▁yes	-1463
▁view	-1464
iful	-1465
abeth	-1466
▁exc	-1467
ev	-1468
▁grand	-1469
▁able	-1470
▁Morrel	-1471
▁.	-1472
▁dem	-1473
lysses	-1474
▁exist	-1475
▁jo	-1476
que	-1477
▁Mary	-1478
▁poss	-1479
▁prof	-1480
ax	-1481
ib	-1482
▁ce	-1483
▁Mosc	-1484
▁family	-1485
▁god	-1486
▁pap	-1487
outh	-1488
▁lead	-1489
▁possess	-1490
▁Elizabeth	-1491
arp	-1492
▁Pl	-1493
▁terrible	-1494
cul	-1495
▁meet	-1496
▁Dants	-1497
▁Ulysses	-1498
▁repe	-1499
▁Gre	-1500
▁bad	-1501
▁means	-1502
▁trans	-1503
▁corn	-1504
▁stra	-1505
▁appeared	-1506
▁bring	-1507
▁conc	-1508
▁comple	-1509
▁tem	-1510
▁rose	-1511
▁Moscow	-1512
▁ele	-1513
▁spir	-1514
▁followed	-1515
▁conv	-1516
▁fair	-1517
race	-1518
▁instant	-1519
▁subject	-1520
ages	-1521
ourn	-1522
amed	-1523
▁making	-1524
▁stren	-1525
yr	-1526
▁bir	-1527
▁often	-1528
unt	-1529
▁feeling	-1530
ury	-1531
▁inqu	-1532
▁answer	-1533
▁force	-1534
▁mil	-1535
▁master	-1536
▁equ	-1537
▁shad	-1538
."	-1539
▁gard	-1540
▁state	-1541
▁women	-1542
der	-1543
▁sto	-1544
▁respect	-1545
cell	-1546
head	-1547
iling	-1548
use	-1549
alth	-1550
ening	-1551
▁stud	-1552
▁ed	-1553
▁mur	-1554
▁sad	-1555
▁ten	-1556
▁known	-1557
▁taking	-1558
▁gaz	-1559
▁requ	-1560
over	-1561
▁pat	-1562
▁desp	-1563
▁during	-1564
▁object	-1565
orses	-1566
▁pray	-1567
▁stay	-1568
iet	-1569
▁Im	-1570
▁ready	-1571
ogn	-1572
▁De	-1573
resh	-1574
ster	-1575
▁low	-1576
▁Her	-1577
▁town	-1578
▁These	-1579
lem	-1580
ubl	-1581
ices	-1582
room	-1583
▁unc	-1584
▁past	-1585
itude	-1586
rat	-1587
▁From	-1588
▁kept	-1589
ush	-1590
▁sever	-1591
▁surpr	-1592
▁received	-1593
cted	-1594
rig	-1595
anged	-1596
▁horses	-1597
▁gods	-1598
▁cross	-1599
▁drew	-1600
▁reached	-1601
▁talk	-1602
olas	-1603
▁fle	-1604
ledge	-1605
▁seems	-1606
let	-1607
ient	-1608
▁fix	-1609
▁cent	-1610
▁quar	-1611
oom	-1612
▁sit	-1613
rence	-1614
▁free	-1615
iar	-1616
▁mount	-1617
ead	-1618
omp	-1619
rupt	-1620
▁sometimes	-1621
▁THE	-1622
▁plain	-1623
▁wonder	-1624
lo	-1625
▁vi	-1626
▁cry	-1627
▁By	-1628
▁age	-1629
▁eng	-1630
▁lad	-1631
icholas	-1632
▁consider	-1633
isf	-1634
▁Valent	-1635
▁prison	-1636
▁diffic	-1637
ales	-1638
▁Who	-1639
ected	-1640
▁const	-1641
▁excell	-1642
▁expression	-1643
▁disp	-1644
▁fine	-1645
sh	-1646
read	-1647
▁par	-1648
ining	-1649
ires	-1650
▁flo	-1651
▁partic	-1652
▁Napoleon	-1653
▁Here	-1654
▁prep	-1655
▁After	-1656
tern	-1657
▁beautiful	-1658
ident	-1659
▁placed	-1660
iment	-1661
mer	-1662
ots	-1663
illes	-1664
▁Nicholas	-1665
body	-1666
ones	-1667
▁enemy	-1668
pend	-1669
utes	-1670
▁acqu	-1671
▁phil	-1672
▁soci	-1673
▁laugh	-1674
▁pleasure	-1675
ym	-1676
aimed	-1677
▁stri	-1678
▁different	-1679
▁rap	-1680
ump	-1681
▁soldiers	-1682
ths	-1683
▁die	-1684
▁bene	-1685
erm	-1686
▁creat	-1687
ancs	-1688
medi	-1689
▁tor	-1690
▁raised	-1691
ask	-1692
vern	-1693
▁remain	-1694
▁3	-1695
ouble	-1696
where	-1697
▁gall	-1698
ches	-1699
▁une	-1700
▁Come	-1701
ues	-1702
aged	-1703
atch	-1704
▁strength	-1705
appe	-1706
osop	-1707
▁mere	-1708
▁State	-1709
▁di	-1710
▁Prin	-1711
▁cast	-1712
ters	-1713
▁squ	-1714
▁cause	-1715
▁tried	-1716
▁recogn	-1717
▁Emperor	-1718
bs	-1719
▁bit	-1720
▁twenty	-1721
erved	-1722
▁francs	-1723
inct	-1724
▁Valentine	-1725
ize	-1726
dle	-1727
▁crowd	-1728
▁impos	-1729
▁charact	-1730
gg	-1731
▁mus	-1732
▁forg	-1733
▁silence	-1734
▁ones	-1735
▁Where	-1736
▁mouth	-1737
▁visit	-1738
▁except	-1739
▁fright	-1740
▁philosop	-1741
....	-1742
▁est	-1743
▁perfect	-1744
▁carriage	-1745
oon	-1746
▁used	-1747
▁contr	-1748
▁several	-1749
▁line	-1750
▁account	-1751
bling	-1752
▁prob	-1753
▁dream	-1754
▁justice	-1755
lled	-1756
▁wis	-1757
▁turning	-1758
ift	-1759
▁Eng	-1760
▁opin	-1761
▁third	-1762
nard	-1763
▁eat	-1764
▁heav	-1765
▁secret	-1766
mes	-1767
ublic	-1768
▁thee	-1769
▁learn	-1770
ieur	-1771
▁laid	-1772
▁pain	-1773
▁drink	-1774
ination	-1775
▁business	-1776
▁Fran	-1777
▁struck	-1778
▁fif	-1779
▁peace	-1780
ceive	-1781
▁hung	-1782
▁convers	-1783
▁Princess	-1784
ote	-1785
▁fast	-1786
▁doing	-1787
▁Thnard	-1788
▁led	-1789
▁mod	-1790
▁carried	-1791
▁seeing	-1792
ms	-1793
▁gri	-1794
▁vict	-1795
▁youth	-1796
oof	-1797
▁comes	-1798
▁exclaimed	-1799
like	-1800
▁pale	-1801
▁sitting	-1802
▁standing	-1803
▁event	-1804
onsieur	-1805
oly	-1806
elle	-1807
empt	-1808
▁sol	-1809
▁natur	-1810
EN	-1811
▁Of	-1812
▁ball	-1813
▁bright	-1814
▁stopped	-1815
▁common	-1816
▁garden	-1817
▁hardly	-1818
▁remember	-1819
▁burn	-1820
bit	-1821
▁pay	-1822
▁city	-1823
▁Franz	-1824
▁happiness	-1825
IN	-1826
aj	-1827
▁mag	-1828
owers	-1829
▁beside	-1830
uff	-1831
▁Mrs	-1832
▁dread	-1833
▁further	-1834
icked	-1835
▁break	-1836
▁position	-1837
▁fre	-1838
▁dress	-1839
▁danger	-1840
▁happened	-1841
▁across	-1842
▁satisf	-1843
▁rev	-1844
clock	-1845
▁evidently	-1846
iced	-1847
▁len	-1848
▁pie	-1849
▁mans	-1850
▁ought	-1851
▁living	-1852
▁certainly	-1853
ze	-1854
ger	-1855
▁officer	-1856
oes	-1857
ras	-1858
arent	-1859
erous	-1860
▁hours	-1861
▁attention	-1862
▁Ben	-1863
cious	-1864
▁guard	-1865
▁immedi	-1866
▁oclock	-1867
▁delight	-1868
▁purs	-1869
▁descri	-1870
▁import	-1871
▁street	-1872
▁neither	-1873
vert	-1874
▁Saint	-1875
▁speaking	-1876
ony	-1877
uous	-1878
▁fig	-1879
▁Pe	-1880
▁tears	-1881
▁beneath	-1882
▁knowledge	-1883
ingly	-1884
▁sweet	-1885
▁auth	-1886
▁accord	-1887
▁corner	-1888
▁forward	-1889
▁sus	-1890
asion	-1891
▁Thus	-1892
▁year	-1893
▁bound	-1894
▁ast	-1895
▁fav	-1896
ours	-1897
▁host	-1898
▁worth	-1899
sib	-1900
▁Jove	-1901
ames	-1902
▁dut	-1903
▁inn	-1904
▁doctor	-1905
utz	-1906
▁number	-1907
▁lips	-1908
though	-1909
▁forth	-1910
yl	-1911
vel	-1912
▁Or	-1913
▁fat	-1914
▁hat	-1915
side	-1916
utzov	-1917
▁rich	-1918
▁vain	-1919
▁effect	-1920
▁wanted	-1921
▁coll	-1922
▁port	-1923
▁calm	-1924
▁post	-1925
▁carry	-1926
▁length	-1927
▁evil	-1928
▁wild	-1929
▁knows	-1930
▁suppose	-1931
AR	-1932
de	-1933
olute	-1934
▁slow	-1935
▁captain	-1936
▁character	-1937
ope	-1938
▁din	-1939
▁mem	-1940
▁Sc	-1941
▁Its	-1942
▁send	-1943
▁impossible	-1944
▁anim	-1945
▁minutes	-1946
lish	-1947
▁Cap	-1948
▁boy	-1949
▁steps	-1950
▁jud	-1951
▁news	-1952
▁troo	-1953
▁Kutzov	-1954
erc	-1955
▁sail	-1956
▁watch	-1957
ob	-1958
und	-1959
▁bear	-1960
▁later	-1961
▁Te	-1962
ency	-1963
raid	-1964
vere	-1965
▁rapid	-1966
▁trees	-1967
▁prince	-1968
▁drawing	-1969
ored	-1970
▁conce	-1971
▁eight	-1972
▁descend	-1973
▁Min	-1974
▁gun	-1975
▁Your	-1976
▁closed	-1977
ges	-1978
▁Ach	-1979
▁pret	-1980
▁princi	-1981
▁mention	-1982
▁necessary	-1983
ius	-1984
▁occup	-1985
▁former	-1986
,"	-1987
ality	-1988
▁Ahab	-1989
▁bott	-1990
▁coun	-1991
▁pock	-1992
ement	-1993
▁charm	-1994
▁silent	-1995
▁show	-1996
▁lady	-1997
▁arrived	-1998
▁Every	-1999
▁regard	-2000
▁enc	-2001
▁viol	-2002
▁attack	-2003
▁experi	-2004
▁following	-2005
▁rid	-2006
▁Miss	-2007
▁glad	-2008
▁glass	-2009
ples	-2010
▁Some	-2011
▁thoughts	-2012
ON	-2013
▁Le	-2014
▁moved	-2015
▁entire	-2016
▁opinion	-2017
▁Ph	-2018
▁Hol	-2019
▁hes	-2020
apter	-2021
▁scar	-2022
▁fixed	-2023
▁story	-2024
▁direct	-2025
▁particular	-2026
iter	-2027
▁arr	-2028
▁fly	-2029
▁kne	-2030
▁succ	-2031
▁tone	-2032
▁quiet	-2033
▁Thnardier	-2034
gr	-2035
umed	-2036
▁blue	-2037
▁iron	-2038
▁wished	-2039
▁Pro	-2040
▁whis	-2041
▁produ	-2042
▁trave	-2043
▁countess	-2044
▁princess	-2045
▁av	-2046
▁Nor	-2047
emois	-2048
▁loud	-2049
▁purp	-2050
▁killed	-2051
ki	-2052
▁band	-2053
▁disappe	-2054
emoiselle	-2055
just	-2056
▁prev	-2057
▁virt	-2058
▁occur	-2059
▁emb	-2060
▁sorrow	-2061
▁proceed	-2062
cer	-2063
▁fing	-2064
▁late	-2065
▁afraid	-2066
hy	-2067
ging	-2068
ives	-2069
usion	-2070
▁circum	-2071
▁govern	-2072
▁complete	-2073
ively	-2074
▁author	-2075
asp	-2076
▁Lu	-2077
▁prov	-2078
▁sense	-2079
▁mass	-2080
▁neigh	-2081
ron	-2082
▁green	-2083
▁honor	-2084
▁Russian	-2085
ooh	-2086
▁En	-2087
▁self	-2088
▁straight	-2089
bo	-2090
ek	-2091
▁fanc	-2092
▁loved	-2093
▁single	-2094
▁presence	-2095
to	-2096
ics	-2097
ilt	-2098
eness	-2099
▁harm	-2100
▁soft	-2101
▁distance	-2102
▁anx	-2103
▁spo	-2104
▁try	-2105
itary	-2106
▁mine	-2107
▁suit	-2108
ration	-2109
▁Holmes	-2110
▁forget	-2111
▁troops	-2112
▁talking	-2113
▁trem	-2114
▁vill	-2115
▁reply	-2116
▁immediately	-2117
▁maid	-2118
▁fate	-2119
▁fresh	-2120
▁darkness	-2121
▁leg	-2122
▁pen	-2123
▁gloom	-2124
▁makes	-2125
retched	-2126
▁Monsieur	-2127
khov	-2128
▁Den	-2129
▁lie	-2130
▁val	-2131
▁Plat	-2132
▁thick	-2133
▁change	-2134
▁desire	-2135
▁beginning	-2136
▁shore	-2137
▁breast	-2138
▁occasion	-2139
▁thinking	-2140
kn	-2141
The	-2142
for	-2143
▁fathers	-2144
ES	-2145
▁attend	-2146
▁neighb	-2147
▁slight	-2148
▁bow	-2149
cient	-2150
▁warm	-2151
▁walked	-2152
▁understood	-2153
▁Sny	-2154
▁kill	-2155
AN	-2156
▁lab	-2157
▁refle	-2158
itation	-2159
olution	-2160
▁repeated	-2161
▁conversation	-2162
els	-2163
sov	-2164
antly	-2165
▁caught	-2166
under	-2167
ustom	-2168
ode	-2169
▁top	-2170
light	-2171
▁cant	-2172
▁belong	-2173
▁orders	-2174
▁Mademoiselle	-2175
▁Sp	-2176
▁Good	-2177
▁neck	-2178
▁plan	-2179
▁ships	-2180
▁inform	-2181
▁spirit	-2182
▁bey	-2183
▁box	-2184
▁cre	-2185
▁kiss	-2186
▁paper	-2187
▁demand	-2188
▁dinner	-2189
▁lif	-2190
▁sal	-2191
▁lived	-2192
▁broken	-2193
ivid	-2194
▁Dar	-2195
▁ago	-2196
▁tom	-2197
▁tra	-2198
▁threw	-2199
▁beyond	-2200
▁Ne	-2201
aled	-2202
▁hig	-2203
▁lim	-2204
inary	-2205
▁boat	-2206
▁waiting	-2207
ned	-2208
▁Ja	-2209
ortal	-2210
fer	-2211
▁big	-2212
itten	-2213
▁floor	-2214
▁remar	-2215
▁seized	-2216
ET	-2217
▁Gr	-2218
▁Tw	-2219
ades	-2220
ises	-2221
▁breath	-2222
IS	-2223
▁Pet	-2224
▁imm	-2225
▁none	-2226
▁acquaint	-2227
rib	-2228
▁decl	-2229
urg	-2230
▁med	-2231
ented	-2232
▁weak	-2233
▁Christ	-2234
▁chance	-2235
▁nar	-2236
▁book	-2237
▁camp	-2238
cience	-2239
▁oppos	-2240
▁reach	-2241
▁escape	-2242
ley	-2243
arer	-2244
ists	-2245
oint	-2246
▁exam	-2247
▁rock	-2248
▁While	-2249
▁meant	-2250
▁history	-2251
▁although	-2252
lig	-2253
pty	-2254
▁ann	-2255
▁eag	-2256
▁comb	-2257
ancing	-2258
itions	-2259
▁filled	-2260
▁quickly	-2261
▁success	-2262
erve	-2263
oned	-2264
▁sep	-2265
▁Benn	-2266
▁wait	-2267
▁stone	-2268
▁motion	-2269
▁service	-2270
▁soldier	-2271
▁wrong	-2272
▁Densov	-2273
▁fortune	-2274
▁Un	-2275
▁Cad	-2276
ically	-2277
anch	-2278
hood	-2279
uted	-2280
▁destro	-2281
▁officers	-2282
▁peas	-2283
▁alarm	-2284
▁action	-2285
▁society	-2286
aped	-2287
▁hop	-2288
isted	-2289
▁Snya	-2290
▁enter	-2291
ler	-2292
▁court	-2293
▁utter	-2294
▁pretty	-2295
▁result	-2296
▁tomorrow	-2297
ume	-2298
urs	-2299
▁instead	-2300
▁Dor	-2301
▁wine	-2302
▁glance	-2303
▁Achilles	-2304
▁circumst	-2305
atever	-2306
val	-2307
▁OF	-2308
▁coat	-2309
▁grew	-2310
acy	-2311
▁cra	-2312
▁mut	-2313
▁forest	-2314
▁purpose	-2315
▁Tr	-2316
▁deal	-2317
leep	-2318
▁fut	-2319
▁wit	-2320
▁prot	-2321
▁Chapter	-2322
▁Ed	-2323
▁sky	-2324
ouses	-2325
▁hill	-2326
▁grave	-2327
▁anyone	-2328
▁nearly	-2329
▁shouted	-2330
eds	-2331
▁den	-2332
▁heavy	-2333
iant	-2334
amber	-2335
asure	-2336
▁report	-2337
▁marriage	-2338
▁appearance	-2339
▁mill	-2340
▁compl	-2341
ague	-2342
▁marry	-2343
▁pocket	-2344
OO	-2345
▁Ex	-2346
▁easy	-2347
▁infl	-2348
cially	-2349
▁English	-2350
▁address	-2351
▁greater	-2352
▁natural	-2353
▁approach	-2354
lly	-2355
▁usual	-2356
▁please	-2357
▁Caderous	-2358
ries	-2359
▁hid	-2360
▁pal	-2361
▁duty	-2362
▁spot	-2363
aining	-2364
▁depart	-2365
▁Bar	-2366
▁noble	-2367
▁intell	-2368
▁toward	-2369
▁wounded	-2370
ah	-2371
▁cat	-2372
▁fal	-2373
achus	-2374
anging	-2375
idence	-2376
▁effort	-2377
▁slowly	-2378
▁Go	-2379
oved	-2380
▁firm	-2381
▁giving	-2382
▁Just	-2383
▁future	-2384
▁covered	-2385
▁getting	-2386
▁stranger	-2387
ike	-2388
▁pit	-2389
▁conn	-2390
▁study	-2391
▁merely	-2392
▁courage	-2393
ously	-2394
culiar	-2395
▁below	-2396
▁latter	-2397
▁spread	-2398
▁leaving	-2399
ubb	-2400
▁La	-2401
ding	-2402
▁fier	-2403
▁shut	-2404
▁smoke	-2405
▁simple	-2406
▁movement	-2407
▁peculiar	-2408
ugg	-2409
▁oer	-2410
▁lean	-2411
▁blind	-2412
ism	-2413
rid	-2414
uct	-2415
▁ign	-2416
ories	-2417
▁Troy	-2418
▁Alice	-2419
▁attempt	-2420
▁Javert	-2421
▁accept	-2422
▁meaning	-2423
▁Caderousse	-2424
angu	-2425
cely	-2426
▁Are	-2427
▁Mar	-2428
▁maj	-2429
pping	-2430
▁clot	-2431
▁Darcy	-2432
▁lower	-2433
aval	-2434
▁died	-2435
▁race	-2436
▁broad	-2437
▁formed	-2438
ams	-2439
umb	-2440
ulty	-2441
▁Fau	-2442
▁rul	-2443
▁unh	-2444
known	-2445
▁allow	-2446
▁noticed	-2447
▁direction	-2448
cerf	-2449
ests	-2450
teen	-2451
urch	-2452
▁und	-2453
lling	-2454
▁apart	-2455
▁smiled	-2456
▁running	-2457
pit	-2458
▁Dr	-2459
omer	-2460
▁ben	-2461
▁por	-2462
▁Very	-2463
▁bold	-2464
▁pull	-2465
▁expected	-2466
ald	-2467
▁pa	-2468
▁cou	-2469
▁furn	-2470
▁brave	-2471
▁fallen	-2472
▁gro	-2473
▁Pooh	-2474
▁aston	-2475
▁journ	-2476
▁silver	-2477
▁probably	-2478
▁Ag	-2479
▁grow	-2480
▁remark	-2481
▁Morcerf	-2482
aves	-2483
bles	-2484
ishop	-2485
▁extre	-2486
▁middle	-2487
▁Certain	-2488
▁afterwards	-2489
jo	-2490
▁van	-2491
▁capt	-2492
▁incl	-2493
▁seven	-2494
▁absolute	-2495
▁France	-2496
▁whales	-2497
bb	-2498
eks	-2499
▁pun	-2500
▁early	-2501
▁beauty	-2502
▁destroy	-2503
▁deg	-2504
▁suc	-2505
▁save	-2506
▁public	-2507
co	-2508
arb	-2509
well	-2510
ified	-2511
▁Will	-2512
▁concl	-2513
▁walls	-2514
ative	-2515
▁sett	-2516
▁burst	-2517
▁today	-2518
pecially	-2519
▁passage	-2520
OM	-2521
that	-2522
▁Troj	-2523
▁prec	-2524
▁wide	-2525
▁wont	-2526
▁Doroth	-2527
▁asleep	-2528
▁months	-2529
▁trying	-2530
▁gentleman	-2531
ays	-2532
▁Yet	-2533
oured	-2534
▁dust	-2535
▁passing	-2536
▁greatest	-2537
aded	-2538
▁Per	-2539
▁bank	-2540
▁cart	-2541
▁becom	-2542
▁retreat	-2543
dom	-2544
athe	-2545
ended	-2546
▁exact	-2547
▁Father	-2548
ision	-2549
▁King	-2550
▁angry	-2551
▁ancient	-2552
▁succeed	-2553
now	-2554
▁da	-2555
ience	-2556
▁miss	-2557
▁pity	-2558
▁walk	-2559
▁thats	-2560
▁treat	-2561
▁prevent	-2562
con	-2563
ploy	-2564
▁Van	-2565
itated	-2566
ounded	-2567
▁heads	-2568
▁teeth	-2569
▁advant	-2570
▁shoulders	-2571
▁var	-2572
ompan	-2573
▁Have	-2574
▁Such	-2575
▁chair	-2576
▁Bl	-2577
▁win	-2578
mbled	-2579
▁paid	-2580
▁eager	-2581
▁separ	-2582
▁despair	-2583
aly	-2584
▁Am	-2585
ences	-2586
▁houses	-2587
▁married	-2588
▁commander	-2589
▁Jo	-2590
▁blow	-2591
▁figure	-2592
▁comfort	-2593
▁quarter	-2594
▁servant	-2595
▁Lord	-2596
▁barric	-2597
▁Br	-2598
osing	-2599
▁hunt	-2600
▁Thats	-2601
▁written	-2602
▁trouble	-2603
aff	-2604
hip	-2605
ails	-2606
aire	-2607
held	-2608
▁cab	-2609
▁situ	-2610
erable	-2611
▁river	-2612
▁Hector	-2613
wise	-2614
ature	-2615
▁polit	-2616
▁police	-2617
▁holding	-2618
▁listened	-2619
▁difficult	-2620
▁ere	-2621
▁ves	-2622
▁gate	-2623
▁hero	-2624
▁lies	-2625
▁perm	-2626
▁sons	-2627
▁possib	-2628
▁Dorothy	-2629
▁especially	-2630
yd	-2631
ishing	-2632
▁honour	-2633
▁promise	-2634
▁du	-2635
enced	-2636
▁seat	-2637
▁twel	-2638
▁divine	-2639
ept	-2640
▁Cl	-2641
▁flew	-2642
▁rese	-2643
▁Noirt	-2644
▁Certainly	-2645
▁according	-2646
▁rage	-2647
▁incre	-2648
▁sides	-2649
▁super	-2650
▁employ	-2651
▁health	-2652
▁perfectly	-2653
▁See	-2654
▁food	-2655
▁persons	-2656
▁feelings	-2657
▁whatever	-2658
000	-2659
ior	-2660
▁educ	-2661
▁lying	-2662
ference	-2663
▁outside	-2664
▁smiling	-2665
uit	-2666
ingu	-2667
▁sch	-2668
▁cand	-2669
▁tall	-2670
▁bread	-2671
▁spect	-2672
▁spite	-2673
▁stern	-2674
▁tender	-2675
▁serious	-2676
IT	-2677
ais	-2678
ien	-2679
ooks	-2680
aming	-2681
▁brid	-2682
ushing	-2683
▁piece	-2684
▁train	-2685
▁vessel	-2686
▁regiment	-2687
▁surprise	-2688
▁bra	-2689
▁civ	-2690
▁tree	-2691
▁Plato	-2692
▁rising	-2693
▁disappeared	-2694
uss	-2695
what	-2696
▁dim	-2697
acing	-2698
inite	-2699
▁individ	-2700
ouis	-2701
▁arg	-2702
▁bent	-2703
▁bless	-2704
▁lives	-2705
▁spring	-2706
▁company	-2707
▁pleased	-2708
pic	-2709
▁Rome	-2710
▁note	-2711
▁safe	-2712
▁summ	-2713
▁surr	-2714
▁grief	-2715
▁party	-2716
▁sharp	-2717
▁easily	-2718
▁minute	-2719
OR	-2720
▁dog	-2721
▁yell	-2722
▁faith	-2723
▁false	-2724
▁ideas	-2725
ishment	-2726
▁commun	-2727
▁golden	-2728
▁interrupt	-2729
gy	-2730
▁Hels	-2731
▁Merc	-2732
▁murm	-2733
ming	-2734
▁thin	-2735
lokhov	-2736
pected	-2737
▁proud	-2738
▁virtue	-2739
▁imagine	-2740
UL	-2741
ashed	-2742
bered	-2743
▁crew	-2744
▁poet	-2745
seless	-2746
▁shook	-2747
▁journey	-2748
mond	-2749
otten	-2750
▁hide	-2751
▁agree	-2752
▁everyone	-2753
.,	-2754
lemn	-2755
sequ	-2756
▁Ind	-2757
▁ver	-2758
▁born	-2759
▁magn	-2760
▁obey	-2761
▁noise	-2762
▁solemn	-2763
▁important	-2764
aph	-2765
een	-2766
ply	-2767
ouds	-2768
▁Tom	-2769
rigin	-2770
▁girls	-2771
▁Dlokhov	-2772
▁accompan	-2773
▁questions	-2774
ases	-2775
▁kings	-2776
▁events	-2777
▁Captain	-2778
▁allowed	-2779
▁contrary	-2780
▁clo	-2781
▁fun	-2782
▁Mont	-2783
▁Only	-2784
▁determ	-2785
▁thunder	-2786
▁fro	-2787
▁wol	-2788
acked	-2789
▁exec	-2790
▁priv	-2791
▁sake	-2792
▁Greek	-2793
▁desert	-2794
▁origin	-2795
▁twelve	-2796
▁observed	-2797
ma	-2798
▁snow	-2799
▁sword	-2800
▁yield	-2801
▁dressed	-2802
▁pointed	-2803
▁opposite	-2804
ye	-2805
imil	-2806
▁hot	-2807
▁langu	-2808
▁music	-2809
▁distingu	-2810
▁cru	-2811
▁Bing	-2812
▁bare	-2813
ception	-2814
▁bottom	-2815
▁letters	-2816
▁dreadful	-2817
str	-2818
ovna	-2819
▁dart	-2820
▁pract	-2821
▁island	-2822
▁seated	-2823
▁shadow	-2824
▁showed	-2825
▁terror	-2826
esty	-2827
fast	-2828
ghed	-2829
▁mel	-2830
▁stro	-2831
fortun	-2832
ounced	-2833
▁Never	-2834
▁broke	-2835
▁drove	-2836
▁histor	-2837
▁knowing	-2838
ton	-2839
▁ble	-2840
▁mor	-2841
ested	-2842
▁Greg	-2843
▁Homer	-2844
▁drawn	-2845
▁oblig	-2846
▁started	-2847
▁unknown	-2848
▁excellency	-2849
io	-2850
aud	-2851
▁May	-2852
arily	-2853
▁legs	-2854
▁vast	-2855
▁knees	-2856
▁scene	-2857
▁Bennet	-2858
▁entirely	-2859
▁gentlemen	-2860
?"	-2861
kes	-2862
,000	-2863
▁aim	-2864
OOK	-2865
iff	-2866
uly	-2867
avro	-2868
▁ban	-2869
▁smo	-2870
olved	-2871
▁Andre	-2872
▁class	-2873
▁Helsing	-2874
▁Did	-2875
▁beat	-2876
▁sens	-2877
▁visible	-2878
▁ourselves	-2879
▁Re	-2880
▁stop	-2881
▁faint	-2882
▁ignor	-2883
▁walking	-2884
▁presented	-2885
▁difficulty	-2886
▁er	-2887
▁ant	-2888
▁sac	-2889
▁sym	-2890
▁drag	-2891
▁ears	-2892
idered	-2893
▁suffic	-2894
▁unhapp	-2895
▁streets	-2896
▁touched	-2897
iod	-2898
olog	-2899
▁trust	-2900
▁moments	-2901
▁Fl	-2902
uded	-2903
▁Anna	-2904
▁mark	-2905
▁Their	-2906
▁habit	-2907
▁sacri	-2908
▁beheld	-2909
▁Nothing	-2910
▁changed	-2911
▁learned	-2912
▁scarcely	-2913
III	-2914
ech	-2915
ias	-2916
rer	-2917
▁Two	-2918
▁rise	-2919
▁tast	-2920
▁gazed	-2921
▁caused	-2922
▁extend	-2923
▁listen	-2924
▁finished	-2925
joy	-2926
▁eld	-2927
▁gen	-2928
▁tow	-2929
▁amid	-2930
icated	-2931
▁aside	-2932
▁fault	-2933
▁church	-2934
▁receive	-2935
ustration	-2936
▁servants	-2937
▁shoulder	-2938
▁existence	-2939
▁vol	-2940
▁Bors	-2941
▁bore	-2942
▁deck	-2943
▁path	-2944
▁fifty	-2945
▁Edmond	-2946
▁military	-2947
▁barricade	-2948
▁conscious	-2949
onel	-2950
ring	-2951
▁bod	-2952
▁pict	-2953
▁Gavro	-2954
▁storm	-2955
▁inquired	-2956
▁Me	-2957
▁XV	-2958
izing	-2959
retch	-2960
▁lose	-2961
▁touch	-2962
▁write	-2963
▁places	-2964
▁Jon	-2965
pered	-2966
▁faces	-2967
▁famil	-2968
▁various	-2969
hel	-2970
rop	-2971
uls	-2972
cial	-2973
▁Sir	-2974
▁sen	-2975
ament	-2976
▁wrote	-2977
▁Andrea	-2978
▁assist	-2979
▁simply	-2980
▁concern	-2981
▁windows	-2982
▁distinct	-2983
wor	-2984
ilar	-2985
ander	-2986
▁ming	-2987
▁intro	-2988
▁worse	-2989
▁ladies	-2990
▁village	-2991
arsh	-2992
▁Beau	-2993
▁rode	-2994
▁tail	-2995
levent	-2996
▁affair	-2997
▁forced	-2998
▁ordered	-2999
▁occupied	-3000
▁Bes	-3001
ument	-3002
▁harp	-3003
ashion	-3004
▁conqu	-3005
▁clouds	-3006
▁moving	-3007
▁myster	-3008
▁notice	-3009
▁appears	-3010
▁affection	-3011
▁frightened	-3012
ina	-3013
athan	-3014
iding	-3015
▁dare	-3016
▁fool	-3017
▁main	-3018
▁moon	-3019
▁ring	-3020
theless	-3021
▁suffer	-3022
▁superi	-3023
▁decided	-3024
▁Noirtier	-3025
▁perceived	-3026
come	-3027
tering	-3028
▁board	-3029
▁grace	-3030
▁likely	-3031
▁unable	-3032
▁creature	-3033
▁advantage	-3034
▁satisfied	-3035
zen	-3036
▁Ad	-3037
bers	-3038
oted	-3039
▁Mart	-3040
▁vent	-3041
▁press	-3042
▁remarked	-3043
AT	-3044
af	-3045
aked	-3046
night	-3047
▁Jane	-3048
▁More	-3049
▁shud	-3050
iction	-3051
▁influ	-3052
▁flight	-3053
▁condition	-3054
▁forgotten	-3055
▁inh	-3056
▁dism	-3057
▁begun	-3058
▁mighty	-3059
▁spoken	-3060
▁strugg	-3061
chelevent	-3062
▁advanced	-3063
▁intellig	-3064
▁approached	-3065
ios	-3066
lin	-3067
▁Com	-3068
▁entr	-3069
▁shot	-3070
▁admir	-3071
▁offer	-3072
▁voices	-3073
▁chamber	-3074
▁clothes	-3075
▁trembling	-3076
ulf	-3077
▁ur	-3078
▁avo	-3079
▁awa	-3080
▁rend	-3081
▁enjoy	-3082
▁speed	-3083
attered	-3084
▁mothers	-3085
▁opening	-3086
▁Lond	-3087
▁ende	-3088
▁sple	-3089
▁civil	-3090
▁thrown	-3091
▁Gavroche	-3092
▁profound	-3093
▁Fauchelevent	-3094
▁circumstances	-3095
▁ris	-3096
ivers	-3097
▁coff	-3098
▁grou	-3099
aximil	-3100
▁warri	-3101
▁gloomy	-3102
▁talked	-3103
▁confess	-3104
loo	-3105
▁Sun	-3106
▁cloud	-3107
▁empty	-3108
▁inquir	-3109
▁proper	-3110
▁rushed	-3111
▁waited	-3112
▁surprised	-3113
OL	-3114
bre	-3115
ett	-3116
▁Bou	-3117
▁BOOK	-3118
▁Made	-3119
▁goes	-3120
father	-3121
▁besides	-3122
▁impress	-3123
▁laughed	-3124
▁remembered	-3125
▁Vas	-3126
▁Aust	-3127
ission	-3128
▁Whale	-3129
▁lines	-3130
▁midst	-3131
ND	-3132
ator	-3133
ners	-3134
▁wise	-3135
enance	-3136
terday	-3137
▁memory	-3138
▁hurried	-3139
▁government	-3140
jol	-3141
cure	-3142
chief	-3143
▁Dont	-3144
▁appl	-3145
▁pier	-3146
▁weep	-3147
ternal	-3148
▁alive	-3149
▁looks	-3150
▁London	-3151
▁horror	-3152
▁thirty	-3153
▁However	-3154
▁offered	-3155
▁uttered	-3156
▁occurred	-3157
hat	-3158
▁Even	-3159
▁hall	-3160
▁shame	-3161
ham	-3162
iny	-3163
cked	-3164
hest	-3165
uses	-3166
▁Cour	-3167
▁Gats	-3168
▁bird	-3169
▁Greece	-3170
▁Maximil	-3171
▁superior	-3172
UR	-3173
ka	-3174
set	-3175
▁Gu	-3176
while	-3177
▁cost	-3178
▁jump	-3179
▁papers	-3180
▁splend	-3181
▁engaged	-3182
▁passion	-3183
▁laughing	-3184
▁prepared	-3185
cr	-3186
▁abb	-3187
▁alt	-3188
aling	-3189
▁sand	-3190
▁seek	-3191
ctions	-3192
▁glanced	-3193
▁suitors	-3194
▁wretched	-3195
olk	-3196
iles	-3197
istol	-3198
▁rain	-3199
jolras	-3200
▁enorm	-3201
▁swift	-3202
▁Bishop	-3203
▁advance	-3204
▁affairs	-3205
▁similar	-3206
▁mentioned	-3207
ieu	-3208
lex	-3209
▁wed	-3210
▁cheer	-3211
▁spent	-3212
▁Madele	-3213
▁endeav	-3214
▁sacred	-3215
lemachus	-3216
▁handsome	-3217
▁Illustration	-3218
oose	-3219
▁sav	-3220
ether	-3221
ortun	-3222
▁disg	-3223
▁Still	-3224
▁rapidly	-3225
hn	-3226
unk	-3227
▁cho	-3228
antic	-3229
▁sick	-3230
▁unex	-3231
▁glory	-3232
▁prove	-3233
▁double	-3234
▁recall	-3235
▁charming	-3236
▁Telemachus	-3237
▁philosopher	-3238
gel	-3239
ips	-3240
▁XX	-3241
burg	-3242
cing	-3243
▁tyr	-3244
▁bitter	-3245
▁parent	-3246
▁period	-3247
▁yellow	-3248
▁philosophy	-3249
rif	-3250
▁Gl	-3251
ayed	-3252
▁Can	-3253
orted	-3254
▁stir	-3255
▁fancy	-3256
▁fashion	-3257
▁perform	-3258
▁Enjolras	-3259
▁generally	-3260
▁id	-3261
enel	-3262
irst	-3263
umph	-3264
▁Pty	-3265
▁Sil	-3266
▁fet	-3267
apped	-3268
ember	-3269
▁equal	-3270
ancholy	-3271
▁recoll	-3272
▁wealth	-3273
▁Bingley	-3274
▁education	-3275
ae	-3276
yal	-3277
acle	-3278
▁ash	-3279
▁neg	-3280
▁rag	-3281
▁star	-3282
▁crime	-3283
▁Peters	-3284
▁Maximilian	-3285
cle	-3286
▁Sm	-3287
nski	-3288
▁fish	-3289
orious	-3290
racted	-3291
▁aband	-3292
▁chest	-3293
▁gives	-3294
▁Mercds	-3295
▁behold	-3296
▁fields	-3297
▁happen	-3298
▁higher	-3299
▁powers	-3300
▁evident	-3301
▁introdu	-3302
▁breakfast	-3303
▁considered	-3304
pir	-3305
▁sy	-3306
▁brow	-3307
▁accom	-3308
▁extra	-3309
ruction	-3310
▁favour	-3311
▁narrow	-3312
▁burning	-3313
▁distant	-3314
▁resumed	-3315
oe	-3316
oped	-3317
▁cow	-3318
champ	-3319
ocked	-3320
ption	-3321
▁nine	-3322
▁pure	-3323
▁forms	-3324
▁saved	-3325
▁mortal	-3326
▁served	-3327
▁melancholy	-3328
but	-3329
▁unf	-3330
ormand	-3331
▁beast	-3332
▁dying	-3333
▁month	-3334
▁uneas	-3335
▁height	-3336
▁paused	-3337
▁repres	-3338
dd	-3339
aus	-3340
uee	-3341
▁thro	-3342
ueeque	-3343
▁coach	-3344
▁nearer	-3345
▁sought	-3346
▁temper	-3347
▁unhappy	-3348
US	-3349
esh	-3350
oop	-3351
pse	-3352
kind	-3353
long	-3354
▁ine	-3355
ulous	-3356
▁fart	-3357
▁fill	-3358
▁fold	-3359
▁week	-3360
▁devil	-3361
▁degree	-3362
▁pistol	-3363
▁extreme	-3364
▁expressed	-3365
ipp	-3366
▁gra	-3367
mense	-3368
▁roof	-3369
▁scre	-3370
action	-3371
▁Somet	-3372
▁pride	-3373
▁distur	-3374
▁matters	-3375
▁Madeleine	-3376
arr	-3377
▁key	-3378
▁sor	-3379
▁stup	-3380
▁vague	-3381
▁consequ	-3382
▁flowers	-3383
▁countenance	-3384
acks	-3385
rate	-3386
▁tum	-3387
▁reve	-3388
▁tong	-3389
▁boats	-3390
▁grasp	-3391
▁repro	-3392
▁bridge	-3393
▁threat	-3394
▁triumph	-3395
▁companion	-3396
▁excellent	-3397
ipe	-3398
crow	-3399
mend	-3400
▁Our	-3401
▁ren	-3402
▁earn	-3403
▁sugg	-3404
▁Louis	-3405
▁build	-3406
▁favor	-3407
▁grass	-3408
▁innoc	-3409
▁slain	-3410
▁space	-3411
▁thank	-3412
aughters	-3413
▁heavens	-3414
▁witness	-3415
▁forehead	-3416
▁carefully	-3417
▁yesterday	-3418
ids	-3419
▁Thr	-3420
▁amb	-3421
▁cit	-3422
arest	-3423
astic	-3424
▁Stubb	-3425
▁freed	-3426
▁reading	-3427
▁remains	-3428
▁mysterious	-3429
pond	-3430
▁sin	-3431
gress	-3432
imate	-3433
▁Long	-3434
▁Ptya	-3435
▁nose	-3436
▁cover	-3437
▁Greeks	-3438
▁kissed	-3439
▁station	-3440
▁brothers	-3441
▁prisoner	-3442
▁singular	-3443
▁Beauchamp	-3444
▁listening	-3445
apart	-3446
inced	-3447
inous	-3448
verse	-3449
▁bell	-3450
▁contem	-3451
▁libert	-3452
▁discuss	-3453
▁falling	-3454
▁hearing	-3455
▁immense	-3456
ardon	-3457
igned	-3458
▁drive	-3459
▁Besides	-3460
▁meeting	-3461
▁watched	-3462
▁pleasant	-3463
▁promised	-3464
▁addressed	-3465
▁discovered	-3466
▁recognized	-3467
eys	-3468
▁Ive	-3469
▁march	-3470
arecrow	-3471
▁sprang	-3472
▁obliged	-3473
▁shadows	-3474
▁enormous	-3475
THE	-3476
ran	-3477
▁Tz	-3478
▁et	-3479
reed	-3480
▁mir	-3481
▁Sper	-3482
▁didnt	-3483
▁parts	-3484
▁souls	-3485
onapart	-3486
▁inside	-3487
▁lifted	-3488
▁clearly	-3489
▁produced	-3490
▁interrupted	-3491
▁Con	-3492
▁pop	-3493
▁luck	-3494
▁bowed	-3495
▁names	-3496
▁takes	-3497
▁ceased	-3498
▁curious	-3499
zz	-3500
▁aud	-3501
▁foe	-3502
iform	-3503
▁Lady	-3504
▁sink	-3505
▁Though	-3506
▁misery	-3507
▁believed	-3508
▁situation	-3509
▁experienced	-3510
ING	-3511
cil	-3512
▁Ap	-3513
teau	-3514
▁pra	-3515
▁uns	-3516
illen	-3517
▁lord	-3518
iently	-3519
▁baron	-3520
▁imper	-3521
▁persu	-3522
▁Before	-3523
▁explain	-3524
▁fingers	-3525
▁pressed	-3526
▁propert	-3527
▁everybody	-3528
▁possession	-3529
go	-3530
zy	-3531
nce	-3532
oses	-3533
▁Col	-3534
▁Alex	-3535
acious	-3536
▁Great	-3537
▁frequ	-3538
▁throw	-3539
▁uniform	-3540
▁apparent	-3541
▁supposed	-3542
▁daughters	-3543
illenormand	-3544
fty	-3545
pon	-3546
▁ep	-3547
cian	-3548
▁Coll	-3549
▁halt	-3550
▁mess	-3551
▁recei	-3552
▁Trojan	-3553
▁depend	-3554
▁supper	-3555
▁language	-3556
▁opportun	-3557
▁watching	-3558
aws	-3559
och	-3560
vey	-3561
▁Bec	-3562
▁Was	-3563
ample	-3564
▁phys	-3565
▁rejo	-3566
inated	-3567
osition	-3568
ueequeg	-3569
▁accompl	-3570
▁settled	-3571
▁victory	-3572
▁Scarecrow	-3573
▁unexpected	-3574
ites	-3575
▁voy	-3576
▁rule	-3577
▁wolf	-3578
▁doors	-3579
▁inhab	-3580
▁sorry	-3581
▁leaves	-3582
ule	-3583
▁Ab	-3584
▁ow	-3585
arse	-3586
bray	-3587
ille	-3588
ital	-3589
▁ascend	-3590
▁growing	-3591
▁liberty	-3592
▁experience	-3593
▁individual	-3594
itz	-3595
oot	-3596
▁gh	-3597
itch	-3598
reet	-3599
▁Jul	-3600
▁Pig	-3601
▁sew	-3602
▁Take	-3603
▁dogs	-3604
▁lock	-3605
▁loss	-3606
▁sigh	-3607
▁delic	-3608
▁hurry	-3609
▁curios	-3610
▁preced	-3611
▁weight	-3612
▁worthy	-3613
▁property	-3614
ium	-3615
▁Car	-3616
▁inj	-3617
field	-3618
▁comr	-3619
▁song	-3620
▁brain	-3621
▁grown	-3622
▁maint	-3623
▁finger	-3624
▁unless	-3625
▁farther	-3626
▁science	-3627
▁spirits	-3628
▁required	-3629
▁somewhat	-3630
▁grandfather	-3631
▁Gillenormand	-3632
tle	-3633
cher	-3634
iety	-3635
oman	-3636
omed	-3637
▁mix	-3638
using	-3639
▁Look	-3640
▁cell	-3641
▁fury	-3642
▁grat	-3643
▁guns	-3644
▁join	-3645
▁fierce	-3646
▁Because	-3647
▁dropped	-3648
IC	-3649
ky	-3650
not	-3651
enth	-3652
▁due	-3653
▁asse	-3654
▁bend	-3655
▁huss	-3656
▁roll	-3657
▁ruin	-3658
▁waves	-3659
▁circle	-3660
▁century	-3661
▁greatly	-3662
▁sisters	-3663
▁whispered	-3664
▁Petersburg	-3665
fl	-3666
mon	-3667
▁Id	-3668
cles	-3669
enge	-3670
ival	-3671
rees	-3672
▁Pat	-3673
▁shr	-3674
▁betr	-3675
▁guess	-3676
ability	-3677
ication	-3678
▁custom	-3679
▁search	-3680
▁exactly	-3681
▁telling	-3682
▁adj	-3683
▁fit	-3684
usted	-3685
▁Tell	-3686
▁deli	-3687
▁emer	-3688
▁fond	-3689
▁relig	-3690
▁asking	-3691
▁cannon	-3692
▁engage	-3693
▁modern	-3694
▁thrust	-3695
▁absence	-3696
▁arrival	-3697
▁mankind	-3698
▁mingled	-3699
▁instantly	-3700
He	-3701
ao	-3702
gar	-3703
isc	-3704
dess	-3705
▁aid	-3706
▁John	-3707
▁Like	-3708
ointed	-3709
▁crown	-3710
▁resem	-3711
▁unjust	-3712
▁Perhaps	-3713
▁motionless	-3714
emn	-3715
▁Had	-3716
▁Man	-3717
▁lod	-3718
board	-3719
▁birds	-3720
▁judge	-3721
▁stupid	-3722
▁anxious	-3723
▁example	-3724
oms	-3725
aker	-3726
pire	-3727
▁mot	-3728
chant	-3729
itable	-3730
▁clean	-3731
▁spear	-3732
▁Debray	-3733
▁arrest	-3734
▁counts	-3735
▁curiosity	-3736
▁influence	-3737
▁particularly	-3738
atur	-3739
cean	-3740
keep	-3741
▁gay	-3742
ounds	-3743
▁True	-3744
▁huge	-3745
▁seas	-3746
▁Vasli	-3747
▁chari	-3748
▁haste	-3749
▁impro	-3750
▁royal	-3751
▁stock	-3752
▁twice	-3753
▁someone	-3754
▁useless	-3755
▁writing	-3756
▁instinct	-3757
▁neighbor	-3758
▁prisoners	-3759
eor	-3760
how	-3761
atic	-3762
▁deb	-3763
▁dry	-3764
▁gar	-3765
▁bull	-3766
▁books	-3767
▁group	-3768
▁liked	-3769
▁hearts	-3770
▁convent	-3771
▁necessity	-3772
hus	-3773
ucc	-3774
anqu	-3775
erman	-3776
ipped	-3777
▁cloak	-3778
▁hopes	-3779
▁slept	-3780
▁monarch	-3781
▁completely	-3782
gin	-3783
▁laws	-3784
▁impat	-3785
▁indif	-3786
▁share	-3787
▁shown	-3788
▁Gregor	-3789
▁Having	-3790
▁Piglet	-3791
▁shield	-3792
▁escaped	-3793
▁putting	-3794
▁horrible	-3795
▁suffered	-3796
▁miserable	-3797
▁suffering	-3798
OME	-3799
tes	-3800
case	-3801
▁Rep	-3802
▁Wood	-3803
stairs	-3804
▁Shall	-3805
▁forty	-3806
▁invol	-3807
▁Minerv	-3808
▁Rostvs	-3809
▁speech	-3810
▁wicked	-3811
▁special	-3812
▁succeeded	-3813
▁difference	-3814
olt	-3815
umn	-3816
yrac	-3817
▁Char	-3818
▁cred	-3819
▁lamp	-3820
▁First	-3821
▁flies	-3822
▁proof	-3823
▁Cather	-3824
▁becomes	-3825
▁conduct	-3826
▁crossed	-3827
▁lighted	-3828
▁peasant	-3829
▁profess	-3830
▁entrance	-3831
▁principle	-3832
ords	-3833
▁Rob	-3834
▁lar	-3835
ables	-3836
ounce	-3837
▁Lucy	-3838
▁task	-3839
▁wore	-3840
▁paint	-3841
▁yours	-3842
▁madame	-3843
▁convinced	-3844
▁approaching	-3845
▁IN	-3846
▁Ts	-3847
ardin	-3848
isher	-3849
ernand	-3850
▁citiz	-3851
▁lofty	-3852
ustomed	-3853
▁honest	-3854
▁stream	-3855
▁excited	-3856
▁freedom	-3857
▁parents	-3858
▁intended	-3859
▁murmured	-3860
▁concealed	-3861
▁possessed	-3862
LE	-3863
vl	-3864
ims	-3865
urse	-3866
ospit	-3867
▁amaz	-3868
▁dawn	-3869
▁match	-3870
▁shock	-3871
▁shoes	-3872
▁feared	-3873
▁priest	-3874
▁suspic	-3875
▁wishes	-3876
▁assured	-3877
▁wonderful	-3878
▁understanding	-3879
ker	-3880
yle	-3881
▁AND	-3882
▁Ant	-3883
▁Those	-3884
▁fatal	-3885
▁combat	-3886
▁pulled	-3887
▁fighting	-3888
illy	-3889
▁Eur	-3890
▁scr	-3891
▁Anat	-3892
▁Bolk	-3893
▁Mina	-3894
▁carp	-3895
▁gain	-3896
▁mast	-3897
▁Mother	-3898
▁explan	-3899
▁heroes	-3900
▁hollow	-3901
▁private	-3902
▁mistaken	-3903
▁absolutely	-3904
▁opportunity	-3905
apt	-3906
ino	-3907
uce	-3908
▁Po	-3909
rain	-3910
▁rad	-3911
▁rob	-3912
▁Each	-3913
▁dull	-3914
▁hole	-3915
▁pron	-3916
▁advice	-3917
▁charge	-3918
▁clever	-3919
▁pieces	-3920
▁monster	-3921
▁entering	-3922
pre	-3923
▁Thy	-3924
▁rum	-3925
▁ton	-3926
aches	-3927
cknow	-3928
dered	-3929
▁ease	-3930
▁hate	-3931
▁symp	-3932
▁tomb	-3933
crates	-3934
▁admit	-3935
▁hence	-3936
▁Gatsby	-3937
▁flying	-3938
▁Fernand	-3939
▁mistake	-3940
▁sleeping	-3941
rows	-3942
▁III	-3943
ivity	-3944
rehen	-3945
venge	-3946
▁Fant	-3947
feyrac	-3948
▁brill	-3949
▁minds	-3950
▁Chteau	-3951
▁strang	-3952
▁quietly	-3953
▁extraord	-3954
▁familiar	-3955
AL	-3956
ux	-3957
▁Tu	-3958
hold	-3959
▁cous	-3960
▁ener	-3961
▁rare	-3962
▁displ	-3963
▁estab	-3964
▁withd	-3965
▁acknow	-3966
▁Bonapart	-3967
▁previous	-3968
▁everywhere	-3969
▁cup	-3970
▁har	-3971
▁groan	-3972
▁ideal	-3973
▁ranks	-3974
▁rough	-3975
▁stair	-3976
▁Silver	-3977
▁advent	-3978
▁points	-3979
▁reader	-3980
▁goddess	-3981
▁reality	-3982
▁regular	-3983
▁removed	-3984
▁violent	-3985
▁Socrates	-3986
▁surrounded	-3987
▁acquaintance	-3988
uel	-3989
▁XI	-3990
anti	-3991
▁dom	-3992
▁pet	-3993
ailed	-3994
▁fail	-3995
▁stat	-3996
arbuck	-3997
iments	-3998
▁anger	-3999
▁aware	-4000
▁benef	-4001
athered	-4002
▁sovere	-4003
▁waters	-4004
▁continually	-4005
ney	-4006
▁IV	-4007
▁gle	-4008
▁sire	-4009
▁catch	-4010
▁stars	-4011
▁proved	-4012
▁tranqu	-4013
▁finding	-4014
▁singing	-4015
▁splendid	-4016
▁otherwise	-4017
ee	-4018
▁i	-4019
ogr	-4020
▁Il	-4021
▁Pvl	-4022
▁Tur	-4023
▁meth	-4024
▁myst	-4025
▁taste	-4026
▁Heaven	-4027
▁desper	-4028
▁famous	-4029
▁lovely	-4030
▁Minerva	-4031
▁descended	-4032
▁described	-4033
het	-4034
▁II	-4035
▁Sw	-4036
clus	-4037
noon	-4038
will	-4039
avalc	-4040
ucket	-4041
▁Geor	-4042
▁pair	-4043
▁picked	-4044
▁sounds	-4045
▁voyage	-4046
▁finally	-4047
▁project	-4048
▁shining	-4049
▁gathered	-4050
▁authority	-4051
▁Courfeyrac	-4052
▁dA	-4053
ault	-4054
▁New	-4055
▁vig	-4056
ctors	-4057
▁Alas	-4058
▁Once	-4059
▁pant	-4060
▁shed	-4061
▁shop	-4062
▁grant	-4063
▁rooms	-4064
▁German	-4065
▁assure	-4066
▁hither	-4067
▁interv	-4068
▁prefer	-4069
▁pushed	-4070
▁hastily	-4071
▁confidence	-4072
▁determined	-4073
▁extraordinary	-4074
ify	-4075
ocr	-4076
reg	-4077
quod	-4078
▁Luc	-4079
asing	-4080
estic	-4081
▁Wick	-4082
justice	-4083
▁hidden	-4084
▁hospit	-4085
▁office	-4086
▁tongue	-4087
▁Anatole	-4088
▁arrange	-4089
▁counsel	-4090
▁earnest	-4091
▁stepped	-4092
▁contempl	-4093
▁accustomed	-4094
por	-4095
!...	-4096
▁impl	-4097
▁pros	-4098
▁whir	-4099
▁avoid	-4100
▁feast	-4101
▁skies	-4102
▁SaintM	-4103
▁agreed	-4104
▁gazing	-4105
▁school	-4106
▁winter	-4107
▁equally	-4108
▁wedding	-4109
▁peasants	-4110
▁progress	-4111
▁accompanied	-4112
agg	-4113
ses	-4114
bour	-4115
unch	-4116
▁Lyd	-4117
▁elb	-4118
▁fac	-4119
ading	-4120
▁chim	-4121
▁diss	-4122
▁exch	-4123
▁pill	-4124
ouring	-4125
▁adjut	-4126
▁calls	-4127
▁miles	-4128
▁smell	-4129
alities	-4130
▁Pequod	-4131
▁invent	-4132
▁regret	-4133
▁stands	-4134
▁conceal	-4135
▁Starbuck	-4136
▁laughter	-4137
▁resolved	-4138
ugn	-4139
▁mal	-4140
▁aunt	-4141
▁helm	-4142
▁pick	-4143
▁dared	-4144
▁dwell	-4145
▁flame	-4146
▁terms	-4147
▁design	-4148
▁fortun	-4149
▁severe	-4150
▁stairs	-4151
▁England	-4152
▁highest	-4153
▁demanded	-4154
▁magnific	-4155
▁departure	-4156
▁sufficient	-4157
▁Aj	-4158
▁Dais	-4159
▁West	-4160
▁clim	-4161
▁tired	-4162
▁truly	-4163
▁venge	-4164
▁Cavalc	-4165
▁genius	-4166
▁pardon	-4167
▁social	-4168
▁throat	-4169
▁whence	-4170
▁precise	-4171
▁arranged	-4172
▁rendered	-4173
▁unfortun	-4174
▁explained	-4175
▁conscience	-4176
eu	-4177
azz	-4178
▁om	-4179
ture	-4180
▁Hark	-4181
▁cook	-4182
▁fled	-4183
▁heat	-4184
▁worn	-4185
rified	-4186
▁birth	-4187
▁cries	-4188
▁frown	-4189
▁fully	-4190
▁upper	-4191
▁wheel	-4192
fortune	-4193
▁amount	-4194
▁deeply	-4195
▁leaning	-4196
▁confused	-4197
▁Catherine	-4198
▁afternoon	-4199
gan	-4200
irm	-4201
oul	-4202
▁Oz	-4203
face	-4204
▁grad	-4205
▁sees	-4206
▁Which	-4207
▁blame	-4208
▁fever	-4209
▁lance	-4210
▁attent	-4211
▁handed	-4212
▁rolled	-4213
▁summer	-4214
▁theres	-4215
▁wisdom	-4216
▁emotion	-4217
▁directly	-4218
▁discover	-4219
▁destroyed	-4220
▁relations	-4221
asc	-4222
nsk	-4223
▁Pol	-4224
ators	-4225
▁Lion	-4226
▁Thou	-4227
▁dish	-4228
▁gaze	-4229
▁hell	-4230
roclus	-4231
▁horiz	-4232
▁raise	-4233
▁subst	-4234
▁whist	-4235
▁infant	-4236
▁content	-4237
▁process	-4238
▁carrying	-4239
▁directed	-4240
▁millions	-4241
▁dangerous	-4242
▁injustice	-4243
!"	-4244
ares	-4245
iece	-4246
road	-4247
uing	-4248
abbit	-4249
orous	-4250
▁rate	-4251
▁Again	-4252
▁aloud	-4253
▁turns	-4254
▁Russia	-4255
▁centre	-4256
▁thirst	-4257
▁Grecian	-4258
▁fifteen	-4259
▁univers	-4260
▁deserted	-4261
▁infinite	-4262
▁shouting	-4263
ese	-4264
coat	-4265
hend	-4266
rors	-4267
rose	-4268
▁Ber	-4269
▁bul	-4270
▁fee	-4271
acles	-4272
ugust	-4273
▁Arth	-4274
▁gray	-4275
orough	-4276
▁straw	-4277
▁wants	-4278
▁Europe	-4279
▁tonight	-4280
▁mountain	-4281
▁intention	-4282
▁misfortune	-4283
SE	-4284
mt	-4285
ait	-4286
ette	-4287
port	-4288
uish	-4289
▁glit	-4290
▁mult	-4291
▁tear	-4292
▁shape	-4293
ogether	-4294
▁chiefs	-4295
▁disapp	-4296
▁forces	-4297
▁method	-4298
▁obtain	-4299
▁square	-4300
▁undert	-4301
▁useful	-4302
▁constit	-4303
▁generals	-4304
▁regarded	-4305
▁treasure	-4306
▁recognize	-4307
▁information	-4308
Th	-4309
igs	-4310
war	-4311
▁je	-4312
▁oh	-4313
chen	-4314
iest	-4315
rily	-4316
▁bos	-4317
▁ess	-4318
asons	-4319
▁Coss	-4320
▁Prof	-4321
▁bill	-4322
▁dign	-4323
▁nice	-4324
▁rope	-4325
▁sway	-4326
▁weap	-4327
rehend	-4328
▁boots	-4329
▁shade	-4330
▁staff	-4331
▁style	-4332
▁timid	-4333
▁native	-4334
▁stones	-4335
▁Woodman	-4336
▁actions	-4337
▁numbers	-4338
▁whisper	-4339
▁immortal	-4340
▁muttered	-4341
▁ordinary	-4342
▁stronger	-4343
▁companions	-4344
min	-4345
you	-4346
bing	-4347
▁bal	-4348
▁vic	-4349
eding	-4350
▁wand	-4351
▁ways	-4352
▁claim	-4353
▁elder	-4354
▁mourn	-4355
▁penet	-4356
▁wings	-4357
▁bearing	-4358
▁playing	-4359
▁signific	-4360
▁Patroclus	-4361
▁creatures	-4362
▁importance	-4363
▁imagination	-4364
▁interesting	-4365
And	-4366
key	-4367
raw	-4368
OMEO	-4369
fice	-4370
▁lit	-4371
▁gest	-4372
▁wond	-4373
ondret	-4374
▁harpo	-4375
▁animal	-4376
▁aspect	-4377
▁cheeks	-4378
▁gently	-4379
▁poison	-4380
▁tumult	-4381
▁entreat	-4382
▁travell	-4383
▁Jonathan	-4384
▁extended	-4385
▁delighted	-4386
▁sacrifice	-4387
▁sovereign	-4388
▁Cavalcanti	-4389
01	-4390
AD	-4391
ral	-4392
▁Hes	-4393
▁iss	-4394
▁kit	-4395
itive	-4396
iture	-4397
oused	-4398
rated	-4399
▁Glau	-4400
▁Pont	-4401
▁edge	-4402
▁obst	-4403
▁prize	-4404
▁gained	-4405
▁insult	-4406
▁surely	-4407
▁Jondret	-4408
▁nations	-4409
▁proport	-4410
▁working	-4411
▁Bolknski	-4412
▁possibly	-4413
▁thorough	-4414
▁astonishment	-4415
ann	-4416
▁Hl	-4417
▁TO	-4418
cies	-4419
mans	-4420
erves	-4421
estor	-4422
▁Ajax	-4423
▁game	-4424
▁pack	-4425
▁rush	-4426
▁wear	-4427
erning	-4428
▁ocean	-4429
▁purch	-4430
▁Indeed	-4431
▁joined	-4432
▁nation	-4433
▁wholly	-4434
▁Collins	-4435
▁measure	-4436
▁weather	-4437
▁generous	-4438
▁pointing	-4439
▁lightning	-4440
▁cop	-4441
▁lin	-4442
▁lot	-4443
▁bree	-4444
▁grey	-4445
▁lest	-4446
▁oper	-4447
▁rear	-4448
▁vari	-4449
▁yard	-4450
eneral	-4451
▁built	-4452
▁dance	-4453
▁facts	-4454
▁queen	-4455
▁buried	-4456
▁driven	-4457
▁resist	-4458
▁desired	-4459
▁support	-4460
▁increased	-4461
RE	-4462
▁Bal	-4463
iable	-4464
opher	-4465
▁cott	-4466
▁exha	-4467
ensive	-4468
▁arose	-4469
▁named	-4470
▁skill	-4471
▁choose	-4472
▁eating	-4473
▁kindly	-4474
▁prayer	-4475
▁transl	-4476
▁sympath	-4477
▁Martians	-4478
▁somewhere	-4479
CE	-4480
It	-4481
bid	-4482
aign	-4483
▁bri	-4484
▁ham	-4485
▁ing	-4486
ighed	-4487
▁fulf	-4488
▁ROMEO	-4489
▁Robin	-4490
▁exerc	-4491
▁knife	-4492
▁plans	-4493
▁coffin	-4494
▁depths	-4495
▁Profess	-4496
▁inhabit	-4497
▁pretend	-4498
▁protect	-4499
▁retired	-4500
▁Republic	-4501
▁distress	-4502
▁involunt	-4503
▁brilliant	-4504
▁returning	-4505
▁acquainted	-4506
IL	-4507
sey	-4508
▁ax	-4509
▁ge	-4510
ilty	-4511
acity	-4512
udden	-4513
▁cler	-4514
▁hurt	-4515
▁rust	-4516
atures	-4517
ulated	-4518
▁absor	-4519
▁corre	-4520
▁flesh	-4521
▁ghost	-4522
▁merry	-4523
▁sewer	-4524
▁During	-4525
▁credit	-4526
▁remind	-4527
▁steeds	-4528
▁Fantine	-4529
▁inspect	-4530
▁accident	-4531
▁personal	-4532
▁touching	-4533
▁conception	-4534
▁considerable	-4535
of	-4536
▁Bert	-4537
▁Next	-4538
▁reck	-4539
▁Water	-4540
▁pause	-4541
▁played	-4542
▁enemies	-4543
▁kindness	-4544
▁powerful	-4545
▁revolution	-4546
TH	-4547
dy	-4548
ores	-4549
▁Maj	-4550
▁Hill	-4551
▁Mean	-4552
illery	-4553
▁caval	-4554
▁coast	-4555
▁level	-4556
▁paces	-4557
▁spend	-4558
▁weeks	-4559
▁guests	-4560
▁strike	-4561
▁kitchen	-4562
▁require	-4563
▁warrior	-4564
▁explanation	-4565
kin	-4566
lev	-4567
osen	-4568
▁Ali	-4569
▁pin	-4570
▁pow	-4571
▁saf	-4572
aping	-4573
▁plun	-4574
▁major	-4575
▁serve	-4576
▁Sudden	-4577
▁condem	-4578
▁enemys	-4579
▁excuse	-4580
▁savage	-4581
▁calling	-4582
▁raising	-4583
▁request	-4584
▁mistress	-4585
▁naturally	-4586
▁pleasures	-4587
▁impression	-4588
can	-4589
orse	-4590
▁peo	-4591
▁Eury	-4592
▁drop	-4593
▁frag	-4594
▁sour	-4595
oubled	-4596
umbled	-4597
▁moral	-4598
▁swall	-4599
▁batter	-4600
▁refuse	-4601
▁details	-4602
▁mounted	-4603
▁campaign	-4604
▁employed	-4605
▁confusion	-4606
▁altogether	-4607
▁destruction	-4608
IO	-4609
alt	-4610
▁Bag	-4611
▁env	-4612
▁lan	-4613
house	-4614
ourge	-4615
▁inex	-4616
▁subm	-4617
▁wake	-4618
ashing	-4619
uments	-4620
▁Sperm	-4621
▁cabin	-4622
▁cases	-4623
▁ridic	-4624
▁suppl	-4625
▁worst	-4626
▁guilty	-4627
▁marked	-4628
▁render	-4629
▁wretch	-4630
▁eternal	-4631
▁fellows	-4632
▁hanging	-4633
▁citizens	-4634
▁Sometimes	-4635
▁contained	-4636
▁Everything	-4637
yp	-4638
lect	-4639
▁wel	-4640
acher	-4641
stand	-4642
▁glim	-4643
idable	-4644
▁bones	-4645
▁flood	-4646
▁sheep	-4647
▁Theres	-4648
▁afford	-4649
▁calcul	-4650
▁castle	-4651
▁needed	-4652
▁Another	-4653
▁anxiety	-4654
▁princip	-4655
▁concerning	-4656
▁connection	-4657
▁Christopher	-4658
gic	-4659
rol	-4660
▁10	-4661
▁diam	-4662
▁flag	-4663
▁holy	-4664
▁bosom	-4665
▁gates	-4666
▁infer	-4667
▁toler	-4668
▁Arthur	-4669
▁abrupt	-4670
▁dreams	-4671
▁exceed	-4672
▁gather	-4673
▁nights	-4674
▁thanks	-4675
▁Bertucc	-4676
▁Pierres	-4677
▁Wickham	-4678
▁capable	-4679
▁compass	-4680
▁keeping	-4681
▁leading	-4682
▁dressing	-4683
▁slightly	-4684
▁apartment	-4685
▁political	-4686
ih	-4687
Ren	-4688
eur	-4689
iam	-4690
lock	-4691
with	-4692
▁bid	-4693
▁bou	-4694
bourg	-4695
iance	-4696
anches	-4697
▁cruel	-4698
▁falls	-4699
▁lover	-4700
▁works	-4701
respond	-4702
▁candle	-4703
▁jumped	-4704
▁Through	-4705
▁seeking	-4706
▁Emperors	-4707
▁actually	-4708
▁attached	-4709
▁becoming	-4710
▁humanity	-4711
▁relation	-4712
▁gradually	-4713
▁staircase	-4714
▁astonished	-4715
rs	-4716
eer	-4717
upp	-4718
ache	-4719
▁der	-4720
▁arch	-4721
▁shru	-4722
▁torn	-4723
▁wing	-4724
▁fetch	-4725
▁squad	-4726
▁Rabbit	-4727
▁affect	-4728
▁assass	-4729
▁bodies	-4730
▁chosen	-4731
▁cousin	-4732
▁enthus	-4733
▁palace	-4734
▁animals	-4735
▁colonel	-4736
▁desires	-4737
▁eagerly	-4738
▁picture	-4739
▁revenge	-4740
▁cheerful	-4741
▁original	-4742
▁mountains	-4743
▁stretched	-4744
vol	-4745
ints	-4746
quis	-4747
▁Hel	-4748
▁ate	-4749
place	-4750
urity	-4751
▁fame	-4752
keeper	-4753
▁Would	-4754
▁bride	-4755
▁swell	-4756
onsense	-4757
▁Street	-4758
▁poetry	-4759
▁assumed	-4760
▁Suddenly	-4761
▁trembled	-4762
▁Jondrette	-4763
▁Meanwhile	-4764
▁frightful	-4765
▁correspond	-4766
rie	-4767
▁bew	-4768
▁obv	-4769
▁lear	-4770
▁pave	-4771
▁prod	-4772
▁rank	-4773
▁term	-4774
▁toss	-4775
▁badly	-4776
▁indul	-4777
▁sport	-4778
▁waist	-4779
▁wrath	-4780
▁Bagrat	-4781
▁crying	-4782
▁wooden	-4783
▁sailors	-4784
▁argument	-4785
▁ignorant	-4786
▁innocent	-4787
▁concerned	-4788
awn	-4789
▁Pre	-4790
▁sof	-4791
▁Gods	-4792
▁Phil	-4793
Renaud	-4794
▁awful	-4795
▁frame	-4796
▁illum	-4797
▁overt	-4798
▁spark	-4799
▁beings	-4800
▁estate	-4801
▁flames	-4802
▁convict	-4803
▁observe	-4804
▁surface	-4805
▁instance	-4806
▁Alexander	-4807
▁possibility	-4808
▁Nevertheless	-4809
chn	-4810
elt	-4811
▁Yu	-4812
cent	-4813
▁mud	-4814
oring	-4815
▁flat	-4816
▁mort	-4817
▁shel	-4818
▁test	-4819
pelled	-4820
▁distr	-4821
▁fears	-4822
▁signs	-4823
▁tempt	-4824
▁bottle	-4825
▁fisher	-4826
▁flower	-4827
kerchief	-4828
▁blessed	-4829
▁existed	-4830
▁shudder	-4831
▁accepted	-4832
▁belonged	-4833
▁composed	-4834
▁features	-4835
▁informed	-4836
▁minister	-4837
▁struggle	-4838
▁Bertuccio	-4839
▁Professor	-4840
▁artillery	-4841
▁committed	-4842
▁apparently	-4843
▁satisfaction	-4844
enes	-4845
kins	-4846
whel	-4847
▁Bor	-4848
▁dam	-4849
inder	-4850
ptych	-4851
▁pace	-4852
▁tale	-4853
▁reign	-4854
▁rever	-4855
▁spare	-4856
ization	-4857
▁defend	-4858
▁leaned	-4859
▁secure	-4860
▁Alptych	-4861
▁capital	-4862
▁manners	-4863
▁masters	-4864
▁painful	-4865
▁peoples	-4866
▁reasons	-4867
▁Russians	-4868
▁adjutant	-4869
▁admitted	-4870
▁branches	-4871
▁declared	-4872
▁precious	-4873
▁reproach	-4874
▁proceeded	-4875
▁ChteauRenaud	-4876
▁intelligence	-4877
▁distinguished	-4878
▁11	-4879
rier	-4880
uced	-4881
▁ens	-4882
▁mat	-4883
▁Ital	-4884
▁blaz	-4885
▁busy	-4886
▁mate	-4887
▁swim	-4888
lessly	-4889
unning	-4890
▁flank	-4891
▁hills	-4892
▁weary	-4893
▁woods	-4894
▁arrive	-4895
▁couple	-4896
▁disord	-4897
▁safety	-4898
▁ashamed	-4899
▁consult	-4900
▁pursued	-4901
▁contempt	-4902
▁presents	-4903
▁vengeance	-4904
▁principles	-4905
▁handkerchief	-4906
wl	-4907
thy	-4908
ueen	-4909
▁pot	-4910
agger	-4911
icity	-4912
ology	-4913
otted	-4914
▁arts	-4915
▁Daisy	-4916
▁delay	-4917
▁knock	-4918
▁mater	-4919
▁rocks	-4920
▁steel	-4921
▁value	-4922
▁fourth	-4923
▁instru	-4924
▁observ	-4925
▁sevent	-4926
▁thinks	-4927
▁cavalry	-4928
▁driving	-4929
▁hideous	-4930
▁connected	-4931
▁Wu	-4932
aria	-4933
aunt	-4934
lict	-4935
seen	-4936
▁coo	-4937
▁fer	-4938
▁reb	-4939
▁embr	-4940
▁Hence	-4941
▁depri	-4942
▁flung	-4943
▁belief	-4944
▁murder	-4945
▁gesture	-4946
▁managed	-4947
▁procure	-4948
▁quitted	-4949
▁refused	-4950
▁younger	-4951
▁harpoone	-4952
▁silently	-4953
▁doubtless	-4954
▁exception	-4955
▁remaining	-4956
▁friendship	-4957
▁unfortunate	-4958
02	-4959
gu	-4960
yn	-4961
osy	-4962
▁Mi	-4963
▁Od	-4964
alls	-4965
amma	-4966
herd	-4967
ilst	-4968
lebr	-4969
udes	-4970
▁Dmt	-4971
▁nin	-4972
▁pan	-4973
▁tea	-4974
▁heap	-4975
▁inev	-4976
▁nerv	-4977
▁sank	-4978
▁seam	-4979
isions	-4980
utions	-4981
▁Three	-4982
▁drunk	-4983
▁excit	-4984
▁feels	-4985
▁hoped	-4986
▁poets	-4987
▁convey	-4988
▁corpse	-4989
▁coward	-4990
▁encoun	-4991
▁stayed	-4992
▁glancing	-4993
▁condemned	-4994
UT	-4995
ads	-4996
com	-4997
geon	-4998
▁Hay	-4999
▁hol	-5000
▁jew	-5001
▁rib	-5002
alous	-5003
▁musk	-5004
▁wept	-5005
▁Baron	-5006
▁bears	-5007
▁guide	-5008
▁uncle	-5009
▁celebr	-5010
▁repeat	-5011
▁stared	-5012
▁vision	-5013
▁council	-5014
▁follows	-5015
▁plainly	-5016
▁treated	-5017
▁Moreover	-5018
▁baroness	-5019
▁examined	-5020
▁overwhel	-5021
▁desperate	-5022
▁represent	-5023
▁separated	-5024
▁excitement	-5025
▁magnificent	-5026
ION	-5027
ems	-5028
rom	-5029
▁Mo	-5030
icip	-5031
imin	-5032
umes	-5033
▁VII	-5034
▁rig	-5035
▁tur	-5036
▁inde	-5037
▁meat	-5038
▁ratt	-5039
▁skin	-5040
asures	-5041
ateful	-5042
▁Penel	-5043
▁agony	-5044
▁simpl	-5045
utation	-5046
▁colour	-5047
▁uneasy	-5048
▁foreign	-5049
▁furious	-5050
▁setting	-5051
▁Countess	-5052
▁affected	-5053
▁breaking	-5054
▁comrades	-5055
▁breathing	-5056
rov	-5057
▁bab	-5058
▁exh	-5059
▁obt	-5060
ishes	-5061
itate	-5062
▁toil	-5063
inging	-5064
▁Lydia	-5065
▁ended	-5066
▁stiff	-5067
▁waste	-5068
ulation	-5069
▁Austri	-5070
▁consid	-5071
▁sailor	-5072
▁thread	-5073
▁uncons	-5074
▁figures	-5075
▁galleys	-5076
▁happens	-5077
▁contrast	-5078
▁striking	-5079
▁distinguish	-5080
AS	-5081
rm	-5082
hic	-5083
pap	-5084
ibly	-5085
vrig	-5086
▁ice	-5087
▁woe	-5088
bable	-5089
ental	-5090
erted	-5091
▁High	-5092
▁crit	-5093
▁east	-5094
▁mart	-5095
arrass	-5096
ivered	-5097
▁Julie	-5098
▁bench	-5099
▁clock	-5100
▁fleet	-5101
▁mercy	-5102
▁shirt	-5103
▁solid	-5104
▁youll	-5105
▁branch	-5106
▁finish	-5107
▁porter	-5108
▁Trojans	-5109
▁consent	-5110
▁objects	-5111
▁weeping	-5112
▁continue	-5113
▁announced	-5114
▁interests	-5115
▁presently	-5116
▁frequently	-5117
▁resolution	-5118
has	-5119
law	-5120
pus	-5121
ris	-5122
fect	-5123
izes	-5124
oubt	-5125
▁Mag	-5126
▁Sim	-5127
▁pil	-5128
▁spl	-5129
▁wet	-5130
pired	-5131
pless	-5132
▁Pres	-5133
▁cord	-5134
▁grie	-5135
▁keen	-5136
apping	-5137
▁sorts	-5138
▁swear	-5139
▁firing	-5140
▁intend	-5141
▁manage	-5142
▁careful	-5143
▁chariot	-5144
▁foolish	-5145
▁mystery	-5146
▁rolling	-5147
▁thither	-5148
▁willing	-5149
▁commands	-5150
▁midnight	-5151
▁furniture	-5152
▁comprehend	-5153
▁formidable	-5154
▁reflection	-5155
▁nevertheless	-5156
ENT	-5157
amb	-5158
aeus	-5159
ands	-5160
khyl	-5161
lers	-5162
▁dil	-5163
▁liv	-5164
alled	-5165
inted	-5166
▁Hlne	-5167
▁List	-5168
▁deed	-5169
▁tend	-5170
vrigny	-5171
▁Madam	-5172
▁Romeo	-5173
▁boast	-5174
▁maids	-5175
▁absent	-5176
▁attrib	-5177
▁causes	-5178
▁purple	-5179
▁states	-5180
▁worked	-5181
▁usually	-5182
▁activity	-5183
▁daylight	-5184
▁meantime	-5185
▁weakness	-5186
▁Frenchman	-5187
▁ignorance	-5188
▁movements	-5189
▁proportion	-5190
If	-5191
fs	-5192
vi	-5193
IET	-5194
tel	-5195
uzz	-5196
ieve	-5197
▁dig	-5198
▁oil	-5199
▁tit	-5200
umber	-5201
▁Nant	-5202
▁farm	-5203
▁Marse	-5204
▁Since	-5205
▁armed	-5206
▁desir	-5207
▁fired	-5208
▁stuff	-5209
▁winds	-5210
▁Mikhyl	-5211
▁fought	-5212
▁wounds	-5213
▁Glaucon	-5214
▁prepare	-5215
▁produce	-5216
▁attitude	-5217
▁building	-5218
▁coachman	-5219
▁whenever	-5220
▁abandoned	-5221
▁execution	-5222
▁conclusion	-5223
▁remarkable	-5224
▁inhabitants	-5225
2.	-5226
amm	-5227
uge	-5228
quet	-5229
rien	-5230
work	-5231
▁vex	-5232
ician	-5233
osure	-5234
▁Eugn	-5235
▁Give	-5236
▁Mars	-5237
▁abst	-5238
▁lack	-5239
▁nodd	-5240
▁oath	-5241
▁pipe	-5242
▁tent	-5243
▁Italy	-5244
▁final	-5245
▁loves	-5246
▁nurse	-5247
▁recom	-5248
▁uncom	-5249
▁youre	-5250
ounding	-5251
▁encour	-5252
▁excess	-5253
▁hunger	-5254
▁quiver	-5255
▁wheels	-5256
▁contrad	-5257
▁correct	-5258
▁diamond	-5259
▁wearing	-5260
▁Waterloo	-5261
▁perceive	-5262
▁vanished	-5263
▁appointed	-5264
▁qualities	-5265
▁assistance	-5266
▁previously	-5267
▁description	-5268
eg	-5269
But	-5270
eps	-5271
rem	-5272
What	-5273
ancy	-5274
bits	-5275
cast	-5276
form	-5277
▁HIS	-5278
▁Men	-5279
▁Mer	-5280
▁Old	-5281
▁irr	-5282
▁som	-5283
▁anch	-5284
▁eleg	-5285
▁jave	-5286
▁pall	-5287
▁sofa	-5288
▁writ	-5289
▁About	-5290
▁angel	-5291
▁crack	-5292
▁notes	-5293
▁porch	-5294
▁August	-5295
▁George	-5296
▁armies	-5297
▁burned	-5298
▁failed	-5299
▁hungry	-5300
▁nodded	-5301
▁taught	-5302
▁General	-5303
▁alarmed	-5304
▁dragged	-5305
▁forever	-5306
▁horizon	-5307
▁Bagratin	-5308
▁bringing	-5309
▁faithful	-5310
▁formerly	-5311
▁moreover	-5312
▁upstairs	-5313
▁Nantucket	-5314
▁concluded	-5315
▁embarrass	-5316
▁preceding	-5317
▁historians	-5318
EL	-5319
gl	-5320
aul	-5321
isp	-5322
▁Ly	-5323
icks	-5324
omen	-5325
▁Rev	-5326
▁Vir	-5327
asket	-5328
ulate	-5329
▁Sept	-5330
▁mood	-5331
▁wave	-5332
ocracy	-5333
▁Champ	-5334
▁Dmtri	-5335
▁cours	-5336
▁drank	-5337
▁yards	-5338
▁begins	-5339
▁choice	-5340
▁gallop	-5341
▁interp	-5342
▁rulers	-5343
▁anguish	-5344
▁violence	-5345
▁agreeable	-5346
▁guardians	-5347
▁thoroughly	-5348
ox	-5349
nes	-5350
rya	-5351
uns	-5352
urd	-5353
▁13	-5354
?...	-5355
chan	-5356
ulse	-5357
▁Dan	-5358
aries	-5359
▁Hell	-5360
▁Soon	-5361
▁prey	-5362
▁rout	-5363
▁subl	-5364
levard	-5365
▁Thank	-5366
▁artic	-5367
▁blows	-5368
▁manif	-5369
▁unple	-5370
▁bourge	-5371
▁praise	-5372
▁Italian	-5373
▁collect	-5374
▁related	-5375
▁remarks	-5376
▁principal	-5377
▁reflected	-5378
▁universal	-5379
▁conditions	-5380
leg	-5381
omin	-5382
▁Ith	-5383
▁wag	-5384
ULIET	-5385
cript	-5386
▁adop	-5387
▁cong	-5388
▁defe	-5389
riages	-5390
▁awake	-5391
▁guest	-5392
▁needs	-5393
▁renew	-5394
▁revol	-5395
▁shone	-5396
▁brains	-5397
▁amongst	-5398
▁nervous	-5399
▁absorbed	-5400
▁expecting	-5401
▁strangers	-5402
▁addressing	-5403
RO	-5404
alf	-5405
bye	-5406
off	-5407
ums	-5408
▁Di	-5409
▁Li	-5410
▁ic	-5411
fall	-5412
hand	-5413
opes	-5414
▁Him	-5415
athed	-5416
eries	-5417
gment	-5418
▁Mrya	-5419
▁Poor	-5420
▁quit	-5421
▁sear	-5422
ooping	-5423
▁beard	-5424
▁fires	-5425
▁limbs	-5426
▁slave	-5427
▁wrink	-5428
▁Eugnie	-5429
▁magist	-5430
▁retire	-5431
▁dignity	-5432
▁popular	-5433
▁hastened	-5434
▁inclined	-5435
▁entertain	-5436
ED	-5437
IG	-5438
rep	-5439
ifts	-5440
▁Arg	-5441
▁Tin	-5442
▁ard	-5443
▁aut	-5444
▁cas	-5445
onder	-5446
▁Till	-5447
▁obsc	-5448
▁outl	-5449
▁risk	-5450
▁size	-5451
▁sole	-5452
leness	-5453
▁Apoll	-5454
▁Ithac	-5455
▁Whats	-5456
▁angle	-5457
▁disci	-5458
▁fatig	-5459
▁north	-5460
▁sheet	-5461
▁south	-5462
▁sperm	-5463
▁Guards	-5464
▁Rostop	-5465
▁consol	-5466
▁duties	-5467
▁forbid	-5468
▁helped	-5469
▁loudly	-5470
▁pursue	-5471
▁signal	-5472
▁sooner	-5473
▁fearful	-5474
▁pierced	-5475
▁unpleas	-5476
▁fastened	-5477
▁Marseilles	-5478
▁od	-5479
rels	-5480
rene	-5481
rous	-5482
urre	-5483
utch	-5484
▁Abb	-5485
▁Pri	-5486
▁Ven	-5487
▁bas	-5488
arted	-5489
▁gend	-5490
▁rang	-5491
▁veil	-5492
versed	-5493
▁Hayde	-5494
▁eaten	-5495
▁trial	-5496
▁JULIET	-5497
▁intent	-5498
▁loving	-5499
▁shouts	-5500
▁throng	-5501
▁utmost	-5502
▁closely	-5503
▁shaking	-5504
▁division	-5505
▁heavenly	-5506
▁September	-5507
0.	-5508
EC	-5509
ork	-5510
▁iv	-5511
▁tap	-5512
eyore	-5513
inlaw	-5514
kward	-5515
▁Odys	-5516
▁Sund	-5517
▁cool	-5518
▁harb	-5519
▁lion	-5520
▁mant	-5521
▁mild	-5522
▁oars	-5523
▁sell	-5524
▁shep	-5525
▁sous	-5526
▁vale	-5527
▁west	-5528
icking	-5529
isible	-5530
urance	-5531
▁clasp	-5532
▁erect	-5533
▁hunts	-5534
▁plant	-5535
▁refer	-5536
▁stick	-5537
▁stout	-5538
▁trace	-5539
▁vehic	-5540
▁Island	-5541
▁Listen	-5542
▁Little	-5543
▁footst	-5544
▁halted	-5545
▁indign	-5546
▁softly	-5547
▁Colonel	-5548
▁bedroom	-5549
▁comment	-5550
▁devoted	-5551
▁hussars	-5552
▁prayers	-5553
▁rushing	-5554
▁pavement	-5555
▁visitors	-5556
▁receiving	-5557
▁Mikhylovna	-5558
▁circumstance	-5559
▁involuntarily	-5560
▁FR	-5561
oons	-5562
▁Tis	-5563
▁glo	-5564
▁tro	-5565
▁won	-5566
apsed	-5567
rious	-5568
▁obed	-5569
erving	-5570
▁White	-5571
▁Witch	-5572
▁flash	-5573
▁linen	-5574
▁liter	-5575
▁loose	-5576
▁murde	-5577
▁locked	-5578
▁powder	-5579
▁strict	-5580
▁tyrant	-5581
▁beloved	-5582
▁cunning	-5583
▁element	-5584
▁wishing	-5585
▁advancing	-5586
▁exhausted	-5587
CH	-5588
ica	-5589
pin	-5590
izzy	-5591
lier	-5592
▁Fri	-5593
▁bay	-5594
▁buy	-5595
▁lat	-5596
▁tot	-5597
agues	-5598
icing	-5599
istic	-5600
▁Amer	-5601
▁Prov	-5602
▁boys	-5603
▁dazz	-5604
▁ends	-5605
▁whit	-5606
lected	-5607
▁armch	-5608
▁awoke	-5609
▁brief	-5610
▁devel	-5611
▁landl	-5612
▁Nestor	-5613
▁corrid	-5614
▁forgot	-5615
piration	-5616
▁awkward	-5617
▁chimney	-5618
▁enchant	-5619
▁heavily	-5620
▁plunged	-5621
▁portion	-5622
▁steward	-5623
▁utterly	-5624
▁nonsense	-5625
▁Bonaparte	-5626
▁Napoleons	-5627
▁bourgeois	-5628
▁conviction	-5629
▁distinctly	-5630
▁consciousness	-5631
cip	-5632
eem	-5633
iot	-5634
onc	-5635
▁VI	-5636
wood	-5637
▁CAP	-5638
▁Des	-5639
▁Has	-5640
▁pon	-5641
inity	-5642
▁East	-5643
▁Hans	-5644
▁cher	-5645
▁dise	-5646
▁gown	-5647
▁tele	-5648
▁corps	-5649
▁finds	-5650
▁sadly	-5651
▁stage	-5652
▁battal	-5653
▁bought	-5654
▁extent	-5655
▁mechan	-5656
▁throne	-5657
▁Dmtriev	-5658
▁angrily	-5659
▁dancing	-5660
▁destiny	-5661
▁harmony	-5662
▁hostile	-5663
▁natures	-5664
▁radiant	-5665
▁crossing	-5666
▁deceived	-5667
▁imagined	-5668
▁murderer	-5669
▁obtained	-5670
▁religion	-5671
▁subjects	-5672
▁throwing	-5673
▁gratitude	-5674
▁pronounced	-5675
▁considering	-5676
bar	-5677
▁WH	-5678
▁Ye	-5679
then	-5680
▁Whe	-5681
▁hut	-5682
▁wid	-5683
adise	-5684
▁Lebl	-5685
▁hang	-5686
▁mead	-5687
▁unus	-5688
▁arise	-5689
▁brown	-5690
▁chain	-5691
▁inner	-5692
itating	-5693
▁Eeyore	-5694
▁hatred	-5695
▁larger	-5696
▁parted	-5697
▁proble	-5698
▁rested	-5699
▁Bourien	-5700
▁Pvlovna	-5701
▁crowded	-5702
▁deliber	-5703
▁jealous	-5704
▁precaut	-5705
▁addition	-5706
▁glorious	-5707
▁numerous	-5708
▁quarters	-5709
▁intellect	-5710
▁precisely	-5711
▁traveller	-5712
▁admiration	-5713
▁consequence	-5714
▁drawingroom	-5715
rd	-5716
ili	-5717
aved	-5718
eral	-5719
irty	-5720
ools	-5721
pled	-5722
▁Ara	-5723
▁Cle	-5724
▁unm	-5725
natur	-5726
uries	-5727
▁June	-5728
▁ours	-5729
▁trif	-5730
▁drops	-5731
▁restr	-5732
▁shoot	-5733
▁leader	-5734
▁poured	-5735
▁source	-5736
▁victim	-5737
▁efforts	-5738
▁honours	-5739
▁kingdom	-5740
▁obscure	-5741
▁stories	-5742
▁suggest	-5743
▁agitated	-5744
▁friendly	-5745
▁inferior	-5746
▁warriors	-5747
▁engagement	-5748
▁sufficiently	-5749
You	-5750
ded	-5751
▁Fe	-5752
▁Ro	-5753
olet	-5754
uits	-5755
▁Any	-5756
▁bag	-5757
▁alas	-5758
▁bade	-5759
▁fare	-5760
▁drown	-5761
▁indic	-5762
▁liber	-5763
▁marve	-5764
▁purse	-5765
▁teach	-5766
▁trous	-5767
▁Ithaca	-5768
▁deadly	-5769
▁incess	-5770
▁prodig	-5771
▁respon	-5772
▁stroke	-5773
▁attract	-5774
▁fancied	-5775
▁knocked	-5776
▁quarrel	-5777
▁showing	-5778
▁staring	-5779
▁galloped	-5780
▁resolute	-5781
▁sacrific	-5782
▁disturbed	-5783
▁introduced	-5784
▁profession	-5785
▁accomplished	-5786
tw	-5787
bus	-5788
rog	-5789
▁Ty	-5790
ULET	-5791
ashv	-5792
soci	-5793
▁Ili	-5794
▁Nay	-5795
▁ric	-5796
overy	-5797
uding	-5798
▁brig	-5799
▁heed	-5800
▁rosy	-5801
▁tied	-5802
▁trou	-5803
▁block	-5804
▁cease	-5805
▁exped	-5806
▁ident	-5807
▁lands	-5808
▁shows	-5809
▁tells	-5810
▁vener	-5811
▁crimin	-5812
▁exists	-5813
▁feeble	-5814
▁loaded	-5815
▁nobody	-5816
▁beating	-5817
▁husbands	-5818
▁recalled	-5819
▁restored	-5820
▁troubled	-5821
▁SaintMran	-5822
▁invisible	-5823
IR	-5824
vet	-5825
ymn	-5826
▁12	-5827
▁ox	-5828
asse	-5829
ican	-5830
ship	-5831
vest	-5832
▁unp	-5833
eless	-5834
ieved	-5835
▁aged	-5836
▁buck	-5837
▁elev	-5838
▁knee	-5839
▁pred	-5840
▁rail	-5841
▁shar	-5842
▁ashes	-5843
▁medic	-5844
▁price	-5845
fulness	-5846
▁breeze	-5847
▁lights	-5848
▁prepar	-5849
▁shades	-5850
▁CAPULET	-5851
▁Neither	-5852
▁divided	-5853
▁forgive	-5854
▁reflect	-5855
▁twentyf	-5856
▁dAvrigny	-5857
▁goodness	-5858
▁overcome	-5859
▁separate	-5860
▁solitary	-5861
▁Christian	-5862
▁acknowled	-5863
▁recommend	-5864
▁suggested	-5865
▁philosophers	-5866
Oh	-5867
bly	-5868
phe	-5869
ovel	-5870
▁Dick	-5871
▁Span	-5872
▁bows	-5873
▁caut	-5874
▁disd	-5875
▁flee	-5876
▁flow	-5877
▁prow	-5878
▁sunk	-5879
▁sust	-5880
▁Mamma	-5881
▁Menel	-5882
▁disch	-5883
▁fruit	-5884
▁marsh	-5885
▁polic	-5886
▁sails	-5887
▁sixty	-5888
▁views	-5889
▁Apollo	-5890
▁Gardin	-5891
▁invest	-5892
sibility	-5893
▁Balashv	-5894
▁vessels	-5895
▁whaling	-5896
▁arrested	-5897
▁attacked	-5898
▁delicate	-5899
▁infantry	-5900
▁pictures	-5901
▁proposed	-5902
▁intervals	-5903
ilb	-5904
outs	-5905
pper	-5906
▁odd	-5907
amped	-5908
enter	-5909
inate	-5910
▁Bour	-5911
▁grim	-5912
▁prud	-5913
▁soil	-5914
▁Borod	-5915
▁borne	-5916
▁chase	-5917
▁outer	-5918
▁peril	-5919
▁thine	-5920
▁urged	-5921
▁associ	-5922
▁courty	-5923
▁season	-5924
▁whilst	-5925
▁invited	-5926
▁princes	-5927
▁Penelope	-5928
▁coursers	-5929
▁sympathy	-5930
▁neighbour	-5931
AM	-5932
no	-5933
hop	-5934
sed	-5935
arly	-5936
▁Alc	-5937
▁Bel	-5938
▁etc	-5939
▁hit	-5940
▁hyp	-5941
▁lux	-5942
▁owe	-5943
▁unb	-5944
enger	-5945
gging	-5946
icted	-5947
othed	-5948
▁fest	-5949
▁rele	-5950
▁ride	-5951
▁tore	-5952
verend	-5953
▁Roman	-5954
▁carts	-5955
▁irres	-5956
▁seize	-5957
ational	-5958
▁column	-5959
▁dining	-5960
▁establ	-5961
▁habits	-5962
▁handle	-5963
▁partly	-5964
▁squire	-5965
▁strain	-5966
▁weapon	-5967
▁writer	-5968
attering	-5969
▁Leblanc	-5970
▁Natshas	-5971
▁abandon	-5972
▁majesty	-5973
▁painted	-5974
▁pursuit	-5975
▁tremble	-5976
▁visitor	-5977
▁wouldnt	-5978
ification	-5979
▁Menelaus	-5980
▁constant	-5981
▁agitation	-5982
▁commanded	-5983
▁terrified	-5984
▁permission	-5985
▁occasionally	-5986
▁consideration	-5987
acc	-5988
box	-5989
mat	-5990
omy	-5991
oph	-5992
ethe	-5993
ques	-5994
▁Han	-5995
▁Say	-5996
▁Str	-5997
▁jaw	-5998
amemn	-5999
▁Vamp	-6000
▁base	-6001
▁butt	-6002
▁date	-6003
▁impr	-6004
▁tide	-6005
▁trap	-6006
ferent	-6007
ifying	-6008
▁Spart	-6009
▁epoch	-6010
▁instr	-6011
▁labor	-6012
▁steep	-6013
▁vault	-6014
▁vivid	-6015
amation	-6016
▁States	-6017
▁begged	-6018
▁endure	-6019
▁masses	-6020
ointment	-6021
▁Agamemn	-6022
▁million	-6023
▁nearest	-6024
▁patient	-6025
▁slipped	-6026
▁sorrows	-6027
▁abruptly	-6028
▁judgment	-6029
▁practice	-6030
▁carriages	-6031
▁slightest	-6032
▁constantly	-6033
▁recollection	-6034
euf	-6035
book	-6036
otte	-6037
uten	-6038
▁Chu	-6039
▁Ste	-6040
▁Tot	-6041
▁dun	-6042
▁unl	-6043
ially	-6044
inent	-6045
pring	-6046
▁Mich	-6047
▁clos	-6048
▁grap	-6049
▁memb	-6050
▁nurs	-6051
▁text	-6052
cribed	-6053
▁Faria	-6054
▁ahead	-6055
▁balls	-6056
▁bands	-6057
▁cheek	-6058
▁pains	-6059
▁plate	-6060
▁queer	-6061
▁supre	-6062
▁swept	-6063
▁tower	-6064
▁energy	-6065
▁riding	-6066
▁sighed	-6067
▁sombre	-6068
▁theory	-6069
▁Borodin	-6070
▁anybody	-6071
▁counter	-6072
▁quality	-6073
▁sincere	-6074
▁virtues	-6075
▁whereas	-6076
▁probable	-6077
▁starting	-6078
▁completed	-6079
▁courtyard	-6080
▁inspector	-6081
▁recollect	-6082
▁thousands	-6083
▁Revolution	-6084
▁interested	-6085
▁throughout	-6086
▁unpleasant	-6087
▁indifferent	-6088
3.	-6089
ai	-6090
aks	-6091
aon	-6092
bys	-6093
ived	-6094
uals	-6095
▁Jim	-6096
▁Mab	-6097
▁cel	-6098
▁row	-6099
atory	-6100
olnsk	-6101
oress	-6102
▁encl	-6103
▁hers	-6104
▁jail	-6105
▁syst	-6106
estial	-6107
▁Black	-6108
▁Flask	-6109
▁Iliad	-6110
▁XVIII	-6111
▁brand	-6112
▁honey	-6113
▁shake	-6114
▁valet	-6115
herlock	-6116
looking	-6117
▁accent	-6118
▁armour	-6119
▁eldest	-6120
▁lovers	-6121
▁plenty	-6122
▁anticip	-6123
▁chiefly	-6124
▁complex	-6125
▁members	-6126
▁sentine	-6127
▁animated	-6128
▁bestowed	-6129
▁corridor	-6130
▁drinking	-6131
▁grateful	-6132
▁intimate	-6133
▁material	-6134
▁physical	-6135
▁sentence	-6136
▁Bourienne	-6137
▁attracted	-6138
▁indicated	-6139
▁inquiries	-6140
▁seriously	-6141
▁shuddered	-6142
▁delightful	-6143
▁ridiculous	-6144
1.	-6145
erl	-6146
gil	-6147
pet	-6148
rin	-6149
zed	-6150
▁Ho	-6151
iour	-6152
itty	-6153
osal	-6154
this	-6155
▁don	-6156
ocrat	-6157
▁ages	-6158
▁roar	-6159
▁sang	-6160
▁trad	-6161
isting	-6162
▁Uncle	-6163
▁chose	-6164
▁dozen	-6165
▁image	-6166
▁leads	-6167
▁naked	-6168
▁tight	-6169
▁active	-6170
▁dishon	-6171
▁extrem	-6172
▁firmly	-6173
▁lament	-6174
▁relief	-6175
fortunes	-6176
▁Majesty	-6177
▁applied	-6178
▁conquer	-6179
▁cottage	-6180
▁disturb	-6181
▁obvious	-6182
▁attended	-6183
▁disgrace	-6184
▁provided	-6185
▁disappear	-6186
▁furnished	-6187
▁hurriedly	-6188
▁permitted	-6189
▁preserved	-6190
▁indifference	-6191
erre	-6192
gent	-6193
ishd	-6194
pers	-6195
sing	-6196
▁Bet	-6197
▁Pha	-6198
▁hed	-6199
▁loc	-6200
▁rom	-6201
▁July	-6202
▁chap	-6203
▁chin	-6204
▁jack	-6205
▁melt	-6206
▁rays	-6207
▁vers	-6208
ilight	-6209
▁deeds	-6210
▁error	-6211
▁kinds	-6212
▁stead	-6213
raction	-6214
▁anchor	-6215
▁banker	-6216
▁contri	-6217
▁daring	-6218
▁disple	-6219
▁folded	-6220
▁highly	-6221
▁notary	-6222
▁repose	-6223
▁ruined	-6224
▁convuls	-6225
▁readily	-6226
▁sublime	-6227
▁torment	-6228
▁visited	-6229
▁Cosettes	-6230
▁compared	-6231
▁definite	-6232
▁disorder	-6233
▁helpless	-6234
▁hitherto	-6235
▁prospect	-6236
▁sensible	-6237
▁trousers	-6238
▁recovered	-6239
▁descending	-6240
▁misfortunes	-6241
UM	-6242
UN	-6243
evi	-6244
sip	-6245
▁Du	-6246
▁IX	-6247
▁ec	-6248
anks	-6249
ials	-6250
iven	-6251
sthe	-6252
yard	-6253
▁Aye	-6254
▁Bab	-6255
▁Hur	-6256
▁Kar	-6257
▁Oct	-6258
▁Red	-6259
▁vel	-6260
▁wip	-6261
escri	-6262
rides	-6263
ulars	-6264
which	-6265
▁Poly	-6266
▁milk	-6267
▁nois	-6268
▁pour	-6269
▁wars	-6270
▁South	-6271
▁Thras	-6272
▁amuse	-6273
▁cloth	-6274
▁gifts	-6275
▁title	-6276
▁attain	-6277
▁burden	-6278
▁illust	-6279
▁incomp	-6280
▁labour	-6281
▁losing	-6282
▁patron	-6283
▁prayed	-6284
▁reward	-6285
▁senses	-6286
lessness	-6287
▁Smolnsk	-6288
▁Without	-6289
▁crushed	-6290
▁javelin	-6291
▁letting	-6292
▁suspect	-6293
▁suspend	-6294
▁Sherlock	-6295
▁describe	-6296
▁indescri	-6297
▁monsieur	-6298
▁reaching	-6299
▁Dmtrievna	-6300
▁Rostopchn	-6301
▁amazement	-6302
▁extremely	-6303
▁household	-6304
▁scattered	-6305
▁glittering	-6306
sk	-6307
oqu	-6308
▁Mu	-6309
▁Ass	-6310
▁Pal	-6311
▁aby	-6312
▁nav	-6313
ashes	-6314
ernal	-6315
▁City	-6316
▁Upon	-6317
▁Wils	-6318
▁aven	-6319
▁bond	-6320
▁cave	-6321
▁coin	-6322
▁ecst	-6323
▁mach	-6324
▁rags	-6325
▁shri	-6326
▁vice	-6327
ograph	-6328
▁harsh	-6329
▁steam	-6330
▁toils	-6331
▁basket	-6332
▁fairly	-6333
▁marble	-6334
▁polite	-6335
▁prompt	-6336
▁sailed	-6337
▁smooth	-6338
▁string	-6339
▁funeral	-6340
▁sounded	-6341
▁armchair	-6342
▁ascended	-6343
▁conflict	-6344
▁disposed	-6345
▁summoned	-6346
rehensible	-6347
▁adventure	-6348
▁assembled	-6349
▁consisted	-6350
▁punishment	-6351
▁established	-6352
In	-6353
oft	-6354
ante	-6355
etto	-6356
hern	-6357
leus	-6358
▁...	-6359
▁bol	-6360
▁rub	-6361
aging	-6362
inese	-6363
piece	-6364
uting	-6365
▁Both	-6366
▁Cors	-6367
▁Dear	-6368
▁Pray	-6369
▁cock	-6370
▁eyeb	-6371
▁lets	-6372
00,000	-6373
master	-6374
orable	-6375
▁Whose	-6376
▁scrut	-6377
▁serge	-6378
▁sweep	-6379
inction	-6380
▁Really	-6381
▁abroad	-6382
▁admire	-6383
▁attach	-6384
▁commit	-6385
▁obeyed	-6386
▁permit	-6387
▁series	-6388
▁shiver	-6389
▁Chinese	-6390
▁audible	-6391
▁breathe	-6392
▁concent	-6393
▁couldnt	-6394
▁glimpse	-6395
▁results	-6396
▁stretch	-6397
▁acquired	-6398
▁anywhere	-6399
▁cloister	-6400
▁executed	-6401
▁insisted	-6402
▁twilight	-6403
▁encounter	-6404
▁performed	-6405
▁celebrated	-6406
▁historical	-6407
▁thoughtful	-6408
uv	-6409
ael	-6410
osp	-6411
hire	-6412
ique	-6413
itor	-6414
otes	-6415
▁Chi	-6416
▁Pel	-6417
▁gig	-6418
▁wif	-6419
alley	-6420
peror	-6421
uable	-6422
uming	-6423
▁Berg	-6424
▁Does	-6425
▁Kung	-6426
▁clam	-6427
▁deem	-6428
▁glow	-6429
▁gore	-6430
▁sche	-6431
ential	-6432
▁Enter	-6433
▁Grand	-6434
▁alike	-6435
▁clerk	-6436
▁heaps	-6437
▁mayor	-6438
▁quant	-6439
▁wives	-6440
▁assume	-6441
▁hoarse	-6442
▁inevit	-6443
▁refuge	-6444
▁settle	-6445
▁unlike	-6446
▁womans	-6447
▁Atrides	-6448
▁amiable	-6449
▁dearest	-6450
▁martial	-6451
▁supreme	-6452
▁captured	-6453
▁independ	-6454
▁mournful	-6455
▁situated	-6456
▁Agamemnon	-6457
▁Providence	-6458
▁individuals	-6459
IV	-6460
iqu	-6461
lym	-6462
▁ty	-6463
▁Cat	-6464
▁Far	-6465
anges	-6466
brary	-6467
▁cult	-6468
▁doom	-6469
▁lift	-6470
▁mour	-6471
▁puzz	-6472
▁wash	-6473
ounted	-6474
uously	-6475
▁Jonah	-6476
▁craft	-6477
▁fiery	-6478
▁incap	-6479
▁inher	-6480
▁intim	-6481
▁merit	-6482
▁mouse	-6483
▁Harker	-6484
▁detail	-6485
▁incred	-6486
▁lasted	-6487
▁reappe	-6488
▁steady	-6489
▁Gregors	-6490
▁cleared	-6491
▁constru	-6492
▁display	-6493
▁doctors	-6494
▁lantern	-6495
▁lightly	-6496
▁madness	-6497
▁seconds	-6498
▁comparis	-6499
▁opinions	-6500
▁celestial	-6501
▁contented	-6502
▁slaughter	-6503
▁traversed	-6504
▁magistrate	-6505
▁tenderness	-6506
▁disposition	-6507
▁observation	-6508
12	-6509
my	-6510
bes	-6511
lla	-6512
gged	-6513
iasm	-6514
rant	-6515
▁Par	-6516
▁fol	-6517
▁fox	-6518
▁ske	-6519
▁vir	-6520
atisf	-6521
ourse	-6522
ovich	-6523
sters	-6524
zkhov	-6525
▁Were	-6526
▁doll	-6527
▁silk	-6528
erlitz	-6529
▁Lizzy	-6530
▁cares	-6531
▁dimin	-6532
▁disgu	-6533
▁elbow	-6534
▁phant	-6535
▁risen	-6536
▁bestow	-6537
▁brazen	-6538
▁notion	-6539
▁thresh	-6540
▁contain	-6541
▁inquire	-6542
▁unusual	-6543
▁awaiting	-6544
▁destined	-6545
▁district	-6546
▁families	-6547
▁guardian	-6548
▁inspired	-6549
▁medicine	-6550
▁persuade	-6551
▁solitude	-6552
▁compelled	-6553
▁discovery	-6554
▁elsewhere	-6555
▁meanwhile	-6556
▁sentiment	-6557
▁spectacles	-6558
▁particulars	-6559
rah	-6560
▁Ha	-6561
irts	-6562
▁cyl	-6563
▁fil	-6564
▁san	-6565
▁tis	-6566
mercy	-6567
▁Tsao	-6568
▁card	-6569
▁rubb	-6570
▁spin	-6571
▁stom	-6572
manuel	-6573
strous	-6574
▁Chang	-6575
▁Grant	-6576
▁Right	-6577
▁Youre	-6578
▁disag	-6579
▁diver	-6580
▁mixed	-6581
▁theat	-6582
▁trick	-6583
▁wasnt	-6584
utenant	-6585
▁Sunday	-6586
▁bewild	-6587
▁calmly	-6588
▁cellar	-6589
▁dashed	-6590
▁eleven	-6591
▁haught	-6592
▁hiding	-6593
▁narrat	-6594
▁signed	-6595
▁speaks	-6596
▁bending	-6597
▁created	-6598
▁disdain	-6599
▁flushed	-6600
▁leaders	-6601
▁panting	-6602
▁welcome	-6603
▁embraced	-6604
▁learning	-6605
▁maintain	-6606
▁realized	-6607
▁withdraw	-6608
▁Therefore	-6609
▁boulevard	-6610
▁collected	-6611
▁footsteps	-6612
▁prevented	-6613
▁resembled	-6614
▁threshold	-6615
▁violently	-6616
▁Englishman	-6617
▁intelligent	-6618
col	-6619
▁TH	-6620
URSE	-6621
aise	-6622
wind	-6623
▁fem	-6624
after	-6625
arged	-6626
ribly	-6627
▁Comb	-6628
▁Five	-6629
▁Most	-6630
▁Toto	-6631
▁blew	-6632
▁bord	-6633
▁diff	-6634
▁gymn	-6635
▁horn	-6636
▁slee	-6637
▁temp	-6638
▁unre	-6639
▁whip	-6640
ailing	-6641
aviour	-6642
everal	-6643
rences	-6644
▁agent	-6645
▁ample	-6646
▁brass	-6647
▁flour	-6648
▁greet	-6649
▁organ	-6650
▁whats	-6651
▁wifes	-6652
natural	-6653
▁beasts	-6654
▁danced	-6655
▁propri	-6656
▁specul	-6657
▁telegr	-6658
▁unwill	-6659
▁Bezkhov	-6660
▁Odyssey	-6661
▁belongs	-6662
▁defence	-6663
▁godlike	-6664
▁parties	-6665
▁pockets	-6666
▁resting	-6667
▁smoking	-6668
▁departed	-6669
▁politics	-6670
▁pressing	-6671
▁strongly	-6672
▁moonlight	-6673
▁suspicion	-6674
▁comfortable	-6675
▁instructions	-6676
AV	-6677
aux	-6678
bler	-6679
llen	-6680
ober	-6681
olom	-6682
plex	-6683
▁Eum	-6684
▁aug	-6685
▁sob	-6686
▁spy	-6687
▁wax	-6688
▁damp	-6689
▁foes	-6690
▁stag	-6691
icable	-6692
mother	-6693
▁Arist	-6694
▁Helen	-6695
▁NURSE	-6696
▁Vampa	-6697
▁annoy	-6698
▁apply	-6699
▁condu	-6700
▁dirty	-6701
▁flock	-6702
▁folly	-6703
▁stuck	-6704
▁suite	-6705
▁track	-6706
▁absurd	-6707
▁crimes	-6708
▁esteem	-6709
▁safely	-6710
▁system	-6711
▁control	-6712
▁corrupt	-6713
▁cutting	-6714
▁emerged	-6715
▁harness	-6716
▁harpoon	-6717
▁illness	-6718
▁leather	-6719
▁recover	-6720
▁reports	-6721
▁restore	-6722
▁stomach	-6723
▁valiant	-6724
▁devotion	-6725
▁landlord	-6726
▁squadron	-6727
▁ventured	-6728
▁childhood	-6729
▁fortunate	-6730
▁messenger	-6731
▁monstrous	-6732
▁Austerlitz	-6733
▁sufferings	-6734
▁civilization	-6735
wr	-6736
▁x	-6737
▁ON	-6738
emet	-6739
erer	-6740
ford	-6741
lets	-6742
▁mas	-6743
▁orn	-6744
▁rav	-6745
bbing	-6746
ifted	-6747
ppino	-6748
▁Many	-6749
▁Nept	-6750
▁deny	-6751
▁isnt	-6752
▁pole	-6753
atched	-6754
ighted	-6755
rehens	-6756
▁Charl	-6757
▁boxes	-6758
▁couch	-6759
▁depos	-6760
▁incon	-6761
▁ingen	-6762
▁insol	-6763
▁whirl	-6764
ciences	-6765
▁Combef	-6766
▁actual	-6767
▁coarse	-6768
▁passes	-6769
▁record	-6770
▁smiles	-6771
▁wolves	-6772
▁Several	-6773
▁battery	-6774
▁current	-6775
▁dismiss	-6776
▁grasped	-6777
▁perplex	-6778
▁replies	-6779
▁species	-6780
▁wanting	-6781
urrection	-6782
▁Gardiner	-6783
▁evidence	-6784
▁external	-6785
▁governor	-6786
▁headlong	-6787
▁passions	-6788
▁reverend	-6789
▁sounding	-6790
▁Pontmercy	-6791
▁hesitated	-6792
▁impatient	-6793
▁preparing	-6794
▁substance	-6795
edy	-6796
eng	-6797
hem	-6798
inn	-6799
arts	-6800
rois	-6801
▁Duc	-6802
▁log	-6803
▁vap	-6804
pinay	-6805
▁Olym	-6806
▁craw	-6807
▁dwar	-6808
▁onto	-6809
▁runs	-6810
▁tact	-6811
▁vest	-6812
headed	-6813
ington	-6814
itudes	-6815
▁Among	-6816
▁decor	-6817
▁fifth	-6818
▁serfs	-6819
▁stret	-6820
ceiving	-6821
ymachus	-6822
▁Mabeuf	-6823
▁bodily	-6824
▁brings	-6825
▁charms	-6826
▁conver	-6827
▁dpinay	-6828
▁harmon	-6829
▁member	-6830
▁resign	-6831
▁thence	-6832
▁united	-6833
ceptible	-6834
ountered	-6835
▁Andrews	-6836
▁Cossack	-6837
▁Peppino	-6838
▁embrace	-6839
▁leagues	-6840
▁prolong	-6841
▁reverie	-6842
▁shelter	-6843
▁studied	-6844
▁breathed	-6845
▁creation	-6846
▁decision	-6847
▁gigantic	-6848
▁quantity	-6849
▁revealed	-6850
▁youthful	-6851
▁anxiously	-6852
▁establish	-6853
▁multitude	-6854
▁president	-6855
▁strangely	-6856
▁uncertain	-6857
▁commission	-6858
▁hesitation	-6859
▁reasonable	-6860
▁encountered	-6861
▁illuminated	-6862
▁overwhelmed	-6863
AC	-6864
Yes	-6865
asm	-6866
isk	-6867
nas	-6868
▁Co	-6869
▁Eh	-6870
peak	-6871
plom	-6872
reci	-6873
▁Cor	-6874
▁Hen	-6875
▁dru	-6876
▁ech	-6877
▁hom	-6878
▁nod	-6879
▁ray	-6880
atson	-6881
bourn	-6882
eenth	-6883
eling	-6884
ilful	-6885
oking	-6886
stead	-6887
▁Four	-6888
▁Kang	-6889
▁Sign	-6890
▁Supp	-6891
▁VIII	-6892
▁gets	-6893
▁gift	-6894
▁hath	-6895
▁mens	-6896
akened	-6897
idents	-6898
otions	-6899
ranean	-6900
usions	-6901
▁Godal	-6902
▁March	-6903
▁abyss	-6904
▁blank	-6905
▁crest	-6906
▁grows	-6907
▁hears	-6908
▁marks	-6909
▁rules	-6910
▁store	-6911
▁beaten	-6912
▁bloody	-6913
▁chairs	-6914
▁conven	-6915
▁darted	-6916
▁freely	-6917
▁hussar	-6918
▁ponine	-6919
▁summit	-6920
▁tables	-6921
ertained	-6922
▁October	-6923
▁curtain	-6924
▁degrees	-6925
▁despite	-6926
▁fatigue	-6927
▁library	-6928
▁message	-6929
▁sinking	-6930
▁Emmanuel	-6931
▁exchange	-6932
▁favorite	-6933
▁offering	-6934
▁troubles	-6935
▁Something	-6936
▁tolerably	-6937
▁wondering	-6938
▁comparison	-6939
▁compassion	-6940
▁enthusiasm	-6941
▁reputation	-6942
▁represented	-6943
▁significance	-6944
ST	-6945
ICH	-6946
bon	-6947
cks	-6948
cus	-6949
gly	-6950
jud	-6951
▁Bo	-6952
▁Ma	-6953
This	-6954
iend	-6955
ldom	-6956
rons	-6957
▁Ily	-6958
▁Sch	-6959
▁apt	-6960
▁ped	-6961
▁vac	-6962
gthen	-6963
iring	-6964
▁Bear	-6965
▁Moby	-6966
▁club	-6967
▁dram	-6968
▁pear	-6969
▁pile	-6970
▁puff	-6971
▁warn	-6972
aptist	-6973
ensity	-6974
▁appet	-6975
▁frank	-6976
▁ruler	-6977
hearted	-6978
▁Gretel	-6979
▁Watson	-6980
▁assert	-6981
▁closer	-6982
▁decide	-6983
▁joyful	-6984
▁motive	-6985
▁portra	-6986
▁reckon	-6987
▁resour	-6988
▁seldom	-6989
▁tailor	-6990
ositions	-6991
▁Martian	-6992
▁ceiling	-6993
▁discipl	-6994
▁earlier	-6995
▁intense	-6996
▁Cossacks	-6997
▁changing	-6998
▁confined	-6999
▁contract	-7000
▁patience	-7001
▁preserve	-7002
▁replaced	-7003
▁wherever	-7004
▁admirable	-7005
▁community	-7006
▁Villeforts	-7007
▁translation	-7008
▁Thrasymachus	-7009
hum	-7010
ped	-7011
▁cu	-7012
Pooh	-7013
alog	-7014
aste	-7015
mber	-7016
othe	-7017
parn	-7018
text	-7019
▁Get	-7020
▁Owl	-7021
▁Tkh	-7022
▁cig	-7023
▁gam	-7024
▁wre	-7025
akers	-7026
attle	-7027
▁bind	-7028
▁lawn	-7029
▁ling	-7030
▁rasc	-7031
▁ruff	-7032
▁ugly	-7033
ension	-7034
ground	-7035
igneur	-7036
ipping	-7037
othing	-7038
▁Joves	-7039
▁Kanga	-7040
▁Swift	-7041
▁Think	-7042
▁acted	-7043
▁bloom	-7044
▁ivory	-7045
▁swarm	-7046
▁tales	-7047
▁torch	-7048
umbling	-7049
▁borrow	-7050
▁diplom	-7051
▁guards	-7052
▁ladder	-7053
▁perish	-7054
▁yonder	-7055
▁Baptist	-7056
▁Spanish	-7057
▁awaited	-7058
▁comrade	-7059
▁feather	-7060
▁guessed	-7061
▁hunting	-7062
▁missing	-7063
▁pulling	-7064
▁captains	-7065
▁deprived	-7066
▁graceful	-7067
▁piercing	-7068
▁somebody	-7069
▁Longbourn	-7070
▁obscurity	-7071
▁tranquill	-7072
▁Combeferre	-7073
▁Thnardiers	-7074
▁directions	-7075
▁acknowledge	-7076
OW	-7077
occ	-7078
oni	-7079
ros	-7080
she	-7081
uet	-7082
unn	-7083
▁ta	-7084
mbly	-7085
meil	-7086
past	-7087
rase	-7088
▁Jun	-7089
▁War	-7090
▁ded	-7091
▁ink	-7092
▁lur	-7093
liest	-7094
verty	-7095
▁Hold	-7096
▁aint	-7097
▁baby	-7098
▁bone	-7099
▁hind	-7100
▁lane	-7101
▁poem	-7102
▁resc	-7103
▁spar	-7104
▁Baker	-7105
▁Bened	-7106
▁Other	-7107
▁accur	-7108
▁appar	-7109
▁crept	-7110
▁disin	-7111
▁feroc	-7112
▁limit	-7113
▁ninet	-7114
▁owing	-7115
▁reass	-7116
▁snuff	-7117
fermeil	-7118
ilities	-7119
▁deeper	-7120
▁detach	-7121
▁doesnt	-7122
▁instit	-7123
▁lively	-7124
▁market	-7125
▁musket	-7126
▁pillow	-7127
ulations	-7128
▁Barrois	-7129
▁Michael	-7130
▁Neptune	-7131
▁candles	-7132
▁conject	-7133
▁deliver	-7134
▁discern	-7135
▁endless	-7136
▁improve	-7137
▁poverty	-7138
▁somehow	-7139
▁swiftly	-7140
▁wealthy	-7141
▁whither	-7142
▁Montparn	-7143
▁interior	-7144
▁likewise	-7145
▁marrying	-7146
▁Godalming	-7147
▁answering	-7148
▁examining	-7149
▁reasoning	-7150
No	-7151
ii	-7152
▁Cs	-7153
umps	-7154
▁BEN	-7155
▁Bah	-7156
▁Gen	-7157
▁Imp	-7158
▁Out	-7159
▁dar	-7160
0,000	-7161
break	-7162
guard	-7163
icken	-7164
stone	-7165
uince	-7166
unter	-7167
▁Hall	-7168
▁meal	-7169
▁olig	-7170
▁salt	-7171
▁sobs	-7172
▁stol	-7173
astrop	-7174
▁Athen	-7175
▁envel	-7176
▁pitch	-7177
▁ruins	-7178
▁scorn	-7179
▁seats	-7180
▁skull	-7181
▁People	-7182
▁Virgil	-7183
▁Wilson	-7184
▁ashore	-7185
▁exting	-7186
▁inward	-7187
▁lately	-7188
▁reject	-7189
▁supply	-7190
▁traces	-7191
▁congrat	-7192
▁draught	-7193
▁elegant	-7194
▁haughty	-7195
▁impulse	-7196
▁newspap	-7197
▁superst	-7198
▁thanked	-7199
▁upright	-7200
▁incident	-7201
▁memories	-7202
▁merchant	-7203
▁oligarch	-7204
▁transfer	-7205
▁treacher	-7206
▁behaviour	-7207
▁immediate	-7208
▁incapable	-7209
▁religious	-7210
▁repeating	-7211
▁retreated	-7212
▁sensation	-7213
▁waistcoat	-7214
▁discussion	-7215
▁harpooneer	-7216
▁proceeding	-7217
▁travelling	-7218
▁indescribable	-7219
We	-7220
▁z	-7221
VOL	-7222
nat	-7223
sec	-7224
▁Iv	-7225
▁ga	-7226
gest	-7227
keys	-7228
ouch	-7229
udge	-7230
▁Che	-7231
▁Rem	-7232
olded	-7233
unken	-7234
▁None	-7235
▁Pall	-7236
▁bath	-7237
▁chem	-7238
▁lone	-7239
▁lust	-7240
▁pine	-7241
▁rude	-7242
▁scru	-7243
▁trip	-7244
angled	-7245
icious	-7246
▁Death	-7247
▁Tkhon	-7248
▁altar	-7249
▁cemet	-7250
▁color	-7251
▁daily	-7252
▁giant	-7253
▁hated	-7254
▁indef	-7255
▁spout	-7256
▁unity	-7257
▁veins	-7258
▁wines	-7259
ciously	-7260
ressing	-7261
▁Should	-7262
▁adored	-7263
▁horrid	-7264
▁insist	-7265
▁missed	-7266
▁skelet	-7267
▁Bennigs	-7268
▁admired	-7269
▁battles	-7270
▁benevol	-7271
▁disease	-7272
▁lowered	-7273
▁slender	-7274
▁venture	-7275
▁announce	-7276
▁criminal	-7277
▁elements	-7278
▁exercise	-7279
▁intently	-7280
▁sinister	-7281
▁tranquil	-7282
▁accompany	-7283
▁catastrop	-7284
▁confident	-7285
▁procureur	-7286
▁swallowed	-7287
▁apartments	-7288
▁breathless	-7289
▁characters	-7290
▁authorities	-7291
▁threatening	-7292
▁neighborhood	-7293
▁unexpectedly	-7294
do	-7295
kv	-7296
ws	-7297
onn	-7298
rim	-7299
▁Sl	-7300
ENCE	-7301
apel	-7302
uite	-7303
vity	-7304
▁Jac	-7305
▁Med	-7306
▁Nes	-7307
▁Tow	-7308
▁Wol	-7309
▁XIV	-7310
▁asc	-7311
▁tig	-7312
▁vul	-7313
▁yon	-7314
▁Hipp	-7315
▁Levi	-7316
▁Life	-7317
▁Mond	-7318
▁Shih	-7319
▁Wait	-7320
▁dine	-7321
▁jest	-7322
▁mode	-7323
▁slip	-7324
▁type	-7325
▁North	-7326
▁Under	-7327
▁aloft	-7328
▁depth	-7329
▁fount	-7330
▁guilt	-7331
▁hosts	-7332
▁hotel	-7333
▁manly	-7334
▁older	-7335
▁owner	-7336
▁scept	-7337
▁using	-7338
▁Prussi	-7339
▁autumn	-7340
▁humble	-7341
▁lesson	-7342
▁mental	-7343
▁repuls	-7344
▁shakes	-7345
▁tragic	-7346
▁adopted	-7347
▁charged	-7348
▁demands	-7349
▁drunken	-7350
▁energet	-7351
▁killing	-7352
▁mischief	-7353
▁restrain	-7354
▁youngest	-7355
▁fortnight	-7356
▁simplicity	-7357
▁uneasiness	-7358
▁probability	-7359
▁contemplation	-7360
ada	-7361
alk	-7362
met	-7363
pel	-7364
tic	-7365
ysi	-7366
anim	-7367
anth	-7368
boat	-7369
maid	-7370
more	-7371
ryph	-7372
▁Haw	-7373
▁Jan	-7374
▁Mur	-7375
▁Pyl	-7376
▁Tsh	-7377
▁XII	-7378
▁axe	-7379
▁fow	-7380
▁enqu	-7381
▁flut	-7382
▁joke	-7383
▁lawy	-7384
▁noon	-7385
▁woke	-7386
▁cards	-7387
▁frost	-7388
▁gleam	-7389
▁goods	-7390
▁mathe	-7391
▁screw	-7392
▁slang	-7393
▁thief	-7394
▁Nether	-7395
▁boldly	-7396
▁confir	-7397
▁doubts	-7398
▁fitted	-7399
▁income	-7400
▁mirror	-7401
▁perpet	-7402
▁region	-7403
aneously	-7404
▁Kutzovs	-7405
▁Whether	-7406
▁answers	-7407
▁barrier	-7408
▁changes	-7409
▁chapter	-7410
▁inquiry	-7411
▁redoubt	-7412
▁scrutin	-7413
▁smaller	-7414
▁wrapped	-7415
▁disagree	-7416
▁emotions	-7417
▁increase	-7418
▁interval	-7419
▁investig	-7420
▁peaceful	-7421
▁pleasing	-7422
▁screamed	-7423
▁sergeant	-7424
▁extremity	-7425
▁interview	-7426
▁invitation	-7427
▁difficulties	-7428
asy	-7429
ops	-7430
rus	-7431
ste	-7432
whe	-7433
▁Ku	-7434
ITHE	-7435
▁flu	-7436
▁pig	-7437
▁sex	-7438
▁woo	-7439
VOLIO	-7440
isure	-7441
press	-7442
ucing	-7443
▁Love	-7444
▁Sure	-7445
▁foam	-7446
▁foul	-7447
▁hamm	-7448
▁mile	-7449
▁publ	-7450
▁unhe	-7451
asions	-7452
▁Hills	-7453
▁Lucys	-7454
▁Venus	-7455
▁banks	-7456
▁beach	-7457
▁belly	-7458
▁eleph	-7459
▁exhib	-7460
▁funny	-7461
▁intox	-7462
▁lucky	-7463
▁resol	-7464
▁scrat	-7465
mendous	-7466
ulating	-7467
▁Morris	-7468
▁elbows	-7469
▁murmur	-7470
▁overth	-7471
▁relate	-7472
▁survey	-7473
▁swords	-7474
seigneur	-7475
▁Hectors	-7476
▁William	-7477
▁balloon	-7478
▁costume	-7479
▁labours	-7480
▁partner	-7481
▁problem	-7482
▁tempest	-7483
▁assembly	-7484
▁attained	-7485
▁bleeding	-7486
▁floating	-7487
▁irresist	-7488
▁offended	-7489
▁official	-7490
▁reported	-7491
▁reserved	-7492
▁swimming	-7493
▁conducted	-7494
▁democracy	-7495
▁obedience	-7496
▁reference	-7497
▁supposing	-7498
▁suspended	-7499
▁unwilling	-7500
▁Montfermeil	-7501
▁Netherfield	-7502
▁attentively	-7503
▁Montparnasse	-7504
▁tranquillity	-7505
oh	-7506
How	-7507
lle	-7508
vre	-7509
zes	-7510
▁BE	-7511
▁eg	-7512
agon	-7513
asty	-7514
iate	-7515
mith	-7516
upon	-7517
zing	-7518
▁Arm	-7519
▁Dol	-7520
▁Roo	-7521
▁Roy	-7522
▁err	-7523
occup	-7524
▁Cont	-7525
▁Holy	-7526
▁beds	-7527
▁bowl	-7528
▁deaf	-7529
▁shes	-7530
▁sque	-7531
▁surm	-7532
▁woes	-7533
uincey	-7534
▁Ahabs	-7535
▁Peter	-7536
▁abode	-7537
▁brisk	-7538
▁brows	-7539
▁fiend	-7540
▁goats	-7541
▁patri	-7542
▁scale	-7543
▁slope	-7544
▁chains	-7545
▁collar	-7546
▁jailer	-7547
▁scenes	-7548
▁tossed	-7549
▁waking	-7550
▁accused	-7551
▁corners	-7552
▁declare	-7553
▁elapsed	-7554
▁emperor	-7555
▁flaming	-7556
▁glasses	-7557
▁leisure	-7558
▁marvell	-7559
▁refrain	-7560
▁respond	-7561
▁seizing	-7562
▁sharply	-7563
▁sixteen	-7564
▁temples	-7565
▁variety	-7566
▁Tomorrow	-7567
▁bitterly	-7568
▁conquest	-7569
▁cylinder	-7570
▁frowning	-7571
▁purchase	-7572
▁solemnly	-7573
▁stopping	-7574
▁Grantaire	-7575
▁assurance	-7576
▁centuries	-7577
▁exchanged	-7578
▁innocence	-7579
▁suspected	-7580
▁yourselves	-7581
▁distinction	-7582
▁examination	-7583
▁affectionate	-7584
uts	-7585
vts	-7586
▁Lo	-7587
When	-7588
gian	-7589
stri	-7590
▁Hsi	-7591
▁Mel	-7592
▁ach	-7593
▁fed	-7594
▁sho	-7595
bably	-7596
orney	-7597
ridge	-7598
▁Boss	-7599
▁Jord	-7600
▁Phar	-7601
▁dang	-7602
▁heir	-7603
▁jaws	-7604
liness	-7605
worthy	-7606
▁Kitty	-7607
▁apple	-7608
▁exert	-7609
▁inval	-7610
▁mates	-7611
▁tones	-7612
▁waved	-7613
chamber	-7614
ression	-7615
▁Seward	-7616
▁Whales	-7617
▁driver	-7618
▁facing	-7619
▁graved	-7620
▁paying	-7621
▁punish	-7622
▁sunset	-7623
▁velvet	-7624
▁gravely	-7625
▁sadness	-7626
▁timidly	-7627
▁upwards	-7628
▁arriving	-7629
▁benefact	-7630
▁cemetery	-7631
▁domestic	-7632
▁frequent	-7633
▁interrog	-7634
▁manifest	-7635
▁valuable	-7636
▁certainty	-7637
▁narrative	-7638
▁reception	-7639
▁transform	-7640
▁discipline	-7641
▁reflections	-7642
zh	-7643
IAR	-7644
hor	-7645
▁Cy	-7646
▁Er	-7647
gels	-7648
mind	-7649
oles	-7650
▁lip	-7651
Saint	-7652
forth	-7653
irect	-7654
▁Bene	-7655
▁Boul	-7656
▁cham	-7657
▁idle	-7658
▁nigh	-7659
▁parl	-7660
▁peep	-7661
▁pool	-7662
▁rent	-7663
▁sage	-7664
resses	-7665
▁alter	-7666
▁arrow	-7667
▁demon	-7668
▁dried	-7669
▁moder	-7670
▁Empire	-7671
▁Indian	-7672
▁Nesvts	-7673
▁appeal	-7674
▁artist	-7675
▁critic	-7676
▁eighty	-7677
▁female	-7678
▁havent	-7679
▁travel	-7680
inations	-7681
▁Beneath	-7682
▁closing	-7683
▁examine	-7684
▁grieved	-7685
▁returns	-7686
▁warning	-7687
▁whereon	-7688
▁Austrian	-7689
▁BENVOLIO	-7690
▁communic	-7691
▁passages	-7692
▁sciences	-7693
▁shepherd	-7694
▁carpenter	-7695
▁essential	-7696
▁happening	-7697
▁senseless	-7698
▁statement	-7699
▁transport	-7700
▁advantages	-7701
▁commanders	-7702
▁downstairs	-7703
▁protection	-7704
▁tremendous	-7705
▁exclamation	-7706
▁incessantly	-7707
▁unconscious	-7708
▁consequently	-7709
▁characteristic	-7710
va	-7711
ERC	-7712
IGH	-7713
bur	-7714
oir	-7715
ols	-7716
▁LA	-7717
deim	-7718
▁Beh	-7719
▁Ple	-7720
▁Sec	-7721
▁cul	-7722
▁gos	-7723
▁oak	-7724
▁pup	-7725
▁unw	-7726
ainte	-7727
iated	-7728
ierce	-7729
urred	-7730
▁Full	-7731
▁Last	-7732
▁Whom	-7733
▁bust	-7734
▁gulf	-7735
▁load	-7736
▁offs	-7737
▁pink	-7738
▁prim	-7739
▁proc	-7740
▁upro	-7741
arters	-7742
itious	-7743
▁Simon	-7744
▁analy	-7745
▁bayon	-7746
▁check	-7747
▁desol	-7748
▁dilig	-7749
▁eloqu	-7750
▁heels	-7751
▁infam	-7752
▁keeps	-7753
▁lodge	-7754
▁milit	-7755
▁roads	-7756
atively	-7757
deimant	-7758
▁altern	-7759
▁career	-7760
▁laying	-7761
▁phrase	-7762
▁raging	-7763
▁roused	-7764
▁shared	-7765
▁stolen	-7766
▁towers	-7767
▁valley	-7768
▁vulgar	-7769
▁Bossuet	-7770
▁Eumaeus	-7771
▁aroused	-7772
▁capture	-7773
▁counted	-7774
▁dispers	-7775
▁exagger	-7776
▁howling	-7777
▁pistols	-7778
▁privile	-7779
▁rightly	-7780
▁sending	-7781
▁springs	-7782
▁dwelling	-7783
▁noticing	-7784
▁properly	-7785
▁reminded	-7786
▁startled	-7787
▁whalemen	-7788
▁belonging	-7789
▁persuaded	-7790
▁physician	-7791
▁exceedingly	-7792
▁expectation	-7793
▁constitution	-7794
30	-7795
alv	-7796
cys	-7797
igi	-7798
lls	-7799
see	-7800
who	-7801
That	-7802
arth	-7803
back	-7804
pass	-7805
▁Bus	-7806
▁PAR	-7807
▁Ter	-7808
▁Tim	-7809
armes	-7810
ieves	-7811
▁Turn	-7812
▁echo	-7813
▁imit	-7814
▁isol	-7815
▁mask	-7816
▁matt	-7817
▁meas	-7818
▁tops	-7819
blance	-7820
inking	-7821
ndered	-7822
oubted	-7823
▁Guard	-7824
▁holds	-7825
▁livid	-7826
▁locks	-7827
▁nephe	-7828
▁trunk	-7829
▁upset	-7830
ossible	-7831
▁Pallas	-7832
▁amidst	-7833
▁cities	-7834
▁herald	-7835
▁issued	-7836
▁maiden	-7837
▁mouths	-7838
▁transp	-7839
▁vanity	-7840
standing	-7841
▁Between	-7842
▁artific	-7843
▁classes	-7844
▁connect	-7845
▁exposed	-7846
▁footman	-7847
▁forming	-7848
▁gallant	-7849
▁grating	-7850
▁placing	-7851
▁policem	-7852
▁prosper	-7853
▁thicket	-7854
▁twisted	-7855
▁vehicle	-7856
deimantus	-7857
▁combined	-7858
▁commence	-7859
▁daybreak	-7860
▁feverish	-7861
▁foremost	-7862
▁gracious	-7863
▁gravedig	-7864
▁halfpast	-7865
▁hurrying	-7866
▁perished	-7867
▁portrait	-7868
▁services	-7869
▁surround	-7870
▁Leviathan	-7871
▁falsehood	-7872
▁quivering	-7873
▁treasures	-7874
▁marvellous	-7875
▁precaution	-7876
▁strengthen	-7877
▁Monseigneur	-7878
▁acknowledged	-7879
▁perspiration	-7880
▁respectfully	-7881
11	-7882
cif	-7883
his	-7884
iac	-7885
uil	-7886
▁ah	-7887
eans	-7888
gypt	-7889
ping	-7890
resa	-7891
usal	-7892
▁Mil	-7893
▁Vra	-7894
▁XVI	-7895
▁bea	-7896
▁lam	-7897
▁stu	-7898
ardly	-7899
cians	-7900
ecamp	-7901
inged	-7902
▁Arab	-7903
▁Arch	-7904
▁Bild	-7905
▁Cons	-7906
▁Make	-7907
▁Pole	-7908
▁lend	-7909
▁push	-7910
▁rein	-7911
▁rows	-7912
▁tort	-7913
acians	-7914
olomys	-7915
▁Luigi	-7916
▁arist	-7917
▁colle	-7918
▁crush	-7919
▁diary	-7920
▁haunt	-7921
▁procl	-7922
▁sends	-7923
▁surre	-7924
▁sympt	-7925
▁Doctor	-7926
▁crownd	-7927
▁defect	-7928
▁denied	-7929
▁geomet	-7930
▁helmet	-7931
▁mantle	-7932
▁mutual	-7933
▁profit	-7934
▁recent	-7935
▁review	-7936
▁washed	-7937
quarters	-7938
▁Gatsbys	-7939
▁blushed	-7940
▁chances	-7941
▁clasped	-7942
▁develop	-7943
▁dungeon	-7944
▁injured	-7945
▁partial	-7946
▁vaguely	-7947
▁conceive	-7948
▁contents	-7949
▁conveyed	-7950
▁hospital	-7951
▁rapidity	-7952
▁relieved	-7953
▁uttering	-7954
▁wondrous	-7955
▁Bennigsen	-7956
▁offspring	-7957
▁practical	-7958
▁contradict	-7959
▁consolation	-7960
▁neighbourhood	-7961
AY	-7962
sp	-7963
vo	-7964
nto	-7965
ril	-7966
onor	-7967
zure	-7968
▁Bas	-7969
▁Oer	-7970
▁Sat	-7971
▁non	-7972
alect	-7973
faced	-7974
shine	-7975
▁Germ	-7976
▁asks	-7977
▁bars	-7978
▁dict	-7979
▁empt	-7980
▁neas	-7981
▁plot	-7982
▁yawn	-7983
necess	-7984
porary	-7985
▁Henry	-7986
▁Lives	-7987
▁WHICH	-7988
▁await	-7989
▁darts	-7990
▁dense	-7991
▁dwarf	-7992
▁folds	-7993
▁impet	-7994
▁miser	-7995
▁oppon	-7996
▁paced	-7997
▁spies	-7998
▁trump	-7999
▁youve	-8000
henomen	-8001
iveness	-8002
▁beggar	-8003
▁betray	-8004
▁cavern	-8005
▁heroic	-8006
▁insurg	-8007
▁jewell	-8008
▁leaped	-8009
▁remote	-8010
▁scheme	-8011
▁spears	-8012
▁subter	-8013
▁subtle	-8014
▁Aristot	-8015
▁Goodbye	-8016
▁Hawkins	-8017
▁amusing	-8018
▁doorway	-8019
▁faculty	-8020
▁harbour	-8021
▁opposed	-8022
▁pushing	-8023
▁remorse	-8024
▁staying	-8025
▁torture	-8026
▁accounts	-8027
▁majestic	-8028
▁mourning	-8029
▁displayed	-8030
▁earnestly	-8031
▁gathering	-8032
▁interpret	-8033
▁occasions	-8034
▁Adeimantus	-8035
▁generation	-8036
▁increasing	-8037
▁intentions	-8038
▁intellectual	-8039
gn	-8040
OUR	-8041
son	-8042
umm	-8043
UTIO	-8044
anny	-8045
atev	-8046
oard	-8047
oked	-8048
umns	-8049
▁Bog	-8050
▁Dav	-8051
▁Don	-8052
▁Ivn	-8053
▁atm	-8054
▁dug	-8055
▁enl	-8056
▁jun	-8057
▁rud	-8058
anded	-8059
arian	-8060
urned	-8061
white	-8062
▁MERC	-8063
▁Port	-8064
▁crou	-8065
▁curt	-8066
▁debt	-8067
▁dies	-8068
▁grin	-8069
▁hint	-8070
▁nest	-8071
▁oxen	-8072
▁subs	-8073
rating	-8074
▁Green	-8075
▁Ilion	-8076
▁Maglo	-8077
▁admin	-8078
▁burnt	-8079
▁delir	-8080
▁elect	-8081
▁reins	-8082
▁swung	-8083
▁trade	-8084
▁Teresa	-8085
▁amazed	-8086
▁bishop	-8087
▁bowing	-8088
▁bullet	-8089
▁chapel	-8090
▁defeat	-8091
▁impert	-8092
▁rarely	-8093
▁riches	-8094
▁simult	-8095
▁submit	-8096
▁warmth	-8097
▁Karatev	-8098
▁Pharaon	-8099
▁appreci	-8100
▁benefit	-8101
▁climbed	-8102
▁darling	-8103
▁deceive	-8104
▁dispute	-8105
▁distrib	-8106
▁effects	-8107
▁enjoyed	-8108
▁gallery	-8109
▁glances	-8110
▁happily	-8111
▁landing	-8112
▁pretext	-8113
▁sailing	-8114
▁secrets	-8115
▁sternly	-8116
▁MERCUTIO	-8117
▁Nesvtski	-8118
▁Tholomys	-8119
▁Whatever	-8120
▁audience	-8121
▁betrayed	-8122
▁counsels	-8123
▁gardener	-8124
▁masthead	-8125
▁phenomen	-8126
▁relative	-8127
▁retained	-8128
▁sunshine	-8129
▁delivered	-8130
▁gendarmes	-8131
▁gymnastic	-8132
▁respected	-8133
▁spectacle	-8134
▁venerable	-8135
▁Wellington	-8136
▁attributed	-8137
▁bewildered	-8138
▁compliment	-8139
▁instrument	-8140
▁politeness	-8141
▁struggling	-8142
▁entertained	-8143
▁arrangements	-8144
▁disagreeable	-8145
▁insurrection	-8146
EM	-8147
OS	-8148
dam	-8149
eep	-8150
ird	-8151
ula	-8152
upt	-8153
zel	-8154
▁Bu	-8155
▁Je	-8156
▁Mc	-8157
leys	-8158
rise	-8159
▁Acc	-8160
▁Bru	-8161
▁Ten	-8162
▁Vul	-8163
▁ath	-8164
▁awe	-8165
▁aye	-8166
▁cub	-8167
▁hem	-8168
▁pir	-8169
▁ram	-8170
▁tid	-8171
actly	-8172
there	-8173
▁Bald	-8174
▁Csar	-8175
▁Duke	-8176
▁Past	-8177
▁Phae	-8178
▁gale	-8179
▁lads	-8180
▁male	-8181
▁slew	-8182
▁spec	-8183
▁stif	-8184
▁tiny	-8185
▁unin	-8186
iation	-8187
minded	-8188
stones	-8189
▁Night	-8190
▁Nurse	-8191
▁azure	-8192
▁drift	-8193
▁etern	-8194
▁magic	-8195
▁mould	-8196
▁panic	-8197
▁pilot	-8198
▁roast	-8199
▁stove	-8200
▁towns	-8201
aturday	-8202
▁aboard	-8203
▁affirm	-8204
▁atmosp	-8205
▁bushes	-8206
▁childs	-8207
▁exquis	-8208
▁insign	-8209
▁judges	-8210
▁landed	-8211
▁lonely	-8212
▁rubles	-8213
▁sheets	-8214
▁sphere	-8215
▁sprung	-8216
▁victor	-8217
▁waving	-8218
▁attacks	-8219
▁chanced	-8220
▁columns	-8221
▁contend	-8222
▁deserve	-8223
▁ringing	-8224
▁selfish	-8225
▁terrors	-8226
▁weapons	-8227
▁whistle	-8228
▁writers	-8229
▁Alcinous	-8230
▁Although	-8231
▁Magloire	-8232
▁Valjeans	-8233
▁complain	-8234
▁eyebrows	-8235
▁murdered	-8236
▁punished	-8237
▁recently	-8238
▁skeleton	-8239
▁supplied	-8240
▁wineshop	-8241
▁Benedetto	-8242
▁arguments	-8243
▁Impossible	-8244
▁opposition	-8245
▁respectful	-8246
▁communication	-8247
ANT	-8248
ILL	-8249
isl	-8250
omb	-8251
▁Cr	-8252
▁eh	-8253
bery	-8254
mast	-8255
rawn	-8256
▁Art	-8257
▁Cir	-8258
▁Del	-8259
▁fog	-8260
▁sem	-8261
▁shy	-8262
▁ult	-8263
glass	-8264
ooked	-8265
overn	-8266
ucked	-8267
▁Vien	-8268
▁boot	-8269
▁copy	-8270
▁obli	-8271
alling	-8272
vering	-8273
▁Lucas	-8274
▁Phbus	-8275
▁avail	-8276
▁embro	-8277
▁hovel	-8278
▁moist	-8279
▁ornam	-8280
▁range	-8281
▁salon	-8282
▁score	-8283
▁stamm	-8284
▁theft	-8285
▁unite	-8286
▁veget	-8287
▁Friend	-8288
▁arrows	-8289
▁butter	-8290
▁coldly	-8291
▁divide	-8292
▁groups	-8293
▁jacket	-8294
▁joyous	-8295
▁occupy	-8296
▁ponder	-8297
▁rights	-8298
▁seamen	-8299
▁slaves	-8300
▁theirs	-8301
▁augment	-8302
▁circles	-8303
▁consist	-8304
▁furnish	-8305
▁gravity	-8306
▁mortals	-8307
▁realize	-8308
▁Faubourg	-8309
▁awakened	-8310
▁farewell	-8311
▁huntsman	-8312
▁mathemat	-8313
▁paradise	-8314
▁preoccup	-8315
▁sentinel	-8316
▁wandered	-8317
▁withdrew	-8318
▁Presently	-8319
▁enveloped	-8320
▁imitation	-8321
▁philosoph	-8322
▁preferred	-8323
▁searching	-8324
▁supported	-8325
▁travelled	-8326
▁containing	-8327
▁describing	-8328
▁passionate	-8329
▁triumphant	-8330
UE	-8331
eus	-8332
ipt	-8333
▁PR	-8334
▁pi	-8335
acon	-8336
alus	-8337
hole	-8338
orus	-8339
▁Tyb	-8340
▁cro	-8341
▁dus	-8342
▁pad	-8343
▁rhy	-8344
▁Bilb	-8345
▁Book	-8346
▁Kurg	-8347
▁Sire	-8348
▁Turk	-8349
▁bulk	-8350
▁bund	-8351
▁feed	-8352
▁fits	-8353
▁goal	-8354
▁liqu	-8355
▁neat	-8356
encies	-8357
ulties	-8358
vation	-8359
ydides	-8360
▁Egypt	-8361
▁Later	-8362
▁Petit	-8363
▁Place	-8364
▁Youll	-8365
▁exter	-8366
▁grain	-8367
▁groom	-8368
▁louis	-8369
▁madam	-8370
▁marin	-8371
▁physi	-8372
▁rises	-8373
▁smart	-8374
▁swine	-8375
ouncing	-8376
▁Behind	-8377
▁Signor	-8378
▁acting	-8379
▁bounds	-8380
▁carpet	-8381
▁cattle	-8382
▁images	-8383
▁indust	-8384
▁meadow	-8385
▁planks	-8386
▁prejud	-8387
▁saddle	-8388
▁saving	-8389
▁scarce	-8390
▁snatch	-8391
oubtedly	-8392
umerable	-8393
▁bullets	-8394
▁contrib	-8395
▁derived	-8396
▁endured	-8397
▁flashed	-8398
▁forests	-8399
▁lifting	-8400
▁reduced	-8401
▁reverse	-8402
▁thieves	-8403
necessary	-8404
▁Everyone	-8405
▁Parisian	-8406
▁Saturday	-8407
▁backward	-8408
▁contains	-8409
▁desirous	-8410
▁dragging	-8411
▁educated	-8412
▁lowering	-8413
▁attempted	-8414
▁customary	-8415
▁exquisite	-8416
▁faculties	-8417
▁favourite	-8418
▁unnatural	-8419
▁adventures	-8420
▁maintained	-8421
▁occupation	-8422
▁perfection	-8423
▁retreating	-8424
▁successful	-8425
▁surprising	-8426
▁application	-8427
▁battlefield	-8428
▁introduction	-8429
▁establishment	-8430
St	-8431
ADY	-8432
ESS	-8433
ITH	-8434
aft	-8435
bac	-8436
ban	-8437
ico	-8438
mas	-8439
pen	-8440
pow	-8441
xem	-8442
▁Ut	-8443
bled	-8444
eled	-8445
eyed	-8446
iday	-8447
idge	-8448
▁Fin	-8449
▁Pap	-8450
▁jet	-8451
aeans	-8452
astle	-8453
entle	-8454
eshot	-8455
ialog	-8456
isive	-8457
roach	-8458
uated	-8459
▁Cape	-8460
▁Emer	-8461
▁Juno	-8462
▁Vict	-8463
▁adjo	-8464
▁bees	-8465
▁fant	-8466
▁genu	-8467
▁gild	-8468
▁nuns	-8469
▁page	-8470
▁pett	-8471
ryphon	-8472
▁Luxem	-8473
▁aided	-8474
▁backs	-8475
▁debts	-8476
▁dusty	-8477
▁goose	-8478
▁newly	-8479
▁rolls	-8480
▁scent	-8481
▁vexed	-8482
natured	-8483
▁Jordan	-8484
▁angels	-8485
▁bathed	-8486
▁contro	-8487
▁cultiv	-8488
▁legisl	-8489
▁nephew	-8490
▁pounds	-8491
▁shores	-8492
▁talent	-8493
▁thrice	-8494
▁trench	-8495
▁watery	-8496
▁Exactly	-8497
▁Tydides	-8498
▁altered	-8499
▁dialect	-8500
▁enlight	-8501
▁enthusi	-8502
▁machine	-8503
▁neglect	-8504
▁persist	-8505
▁propose	-8506
▁slumber	-8507
▁yielded	-8508
▁ambition	-8509
▁bursting	-8510
▁covering	-8511
▁delicacy	-8512
▁descends	-8513
▁joyfully	-8514
▁released	-8515
▁retorted	-8516
▁sunlight	-8517
▁uncommon	-8518
▁Charlotte	-8519
▁battalion	-8520
▁betrothed	-8521
▁introduce	-8522
▁objection	-8523
▁Luxembourg	-8524
▁forgetting	-8525
▁procession	-8526
▁threatened	-8527
▁complicated	-8528
▁impatiently	-8529
▁innumerable	-8530
▁unconsciously	-8531
TE	-8532
PAN	-8533
orz	-8534
ppd	-8535
six	-8536
▁Hu	-8537
▁ze	-8538
dled	-8539
emon	-8540
fact	-8541
ieth	-8542
kers	-8543
lini	-8544
omte	-8545
pent	-8546
ulch	-8547
▁Bre	-8548
▁Exc	-8549
▁Jes	-8550
▁Lat	-8551
▁Tem	-8552
▁dyn	-8553
▁fan	-8554
▁tin	-8555
abled	-8556
ersby	-8557
gered	-8558
ierre	-8559
might	-8560
ressd	-8561
warks	-8562
▁Amph	-8563
▁Tash	-8564
▁Tsar	-8565
▁borz	-8566
▁clut	-8567
▁conj	-8568
▁fath	-8569
▁intr	-8570
▁jury	-8571
▁lake	-8572
strate	-8573
teenth	-8574
terest	-8575
▁Stand	-8576
▁blade	-8577
▁blast	-8578
▁dined	-8579
▁faire	-8580
▁heres	-8581
▁irreg	-8582
▁nails	-8583
▁shine	-8584
▁slipp	-8585
▁thund	-8586
▁vanqu	-8587
▁Vienna	-8588
▁advise	-8589
▁awaken	-8590
▁cheese	-8591
▁coffee	-8592
▁compar	-8593
▁devils	-8594
▁groans	-8595
▁metaph	-8596
▁oppose	-8597
▁precip	-8598
▁reluct	-8599
▁remove	-8600
▁resent	-8601
▁shower	-8602
▁stated	-8603
▁temple	-8604
▁termed	-8605
▁uproar	-8606
▁volunt	-8607
▁Emerald	-8608
▁dislike	-8609
▁dreamed	-8610
▁largest	-8611
▁thereby	-8612
▁villain	-8613
▁washing	-8614
▁whoever	-8615
▁Achaeans	-8616
▁Antinous	-8617
▁drooping	-8618
▁hundreds	-8619
▁imperial	-8620
▁invented	-8621
▁measures	-8622
▁prioress	-8623
▁relating	-8624
▁forbidden	-8625
▁grapeshot	-8626
▁observing	-8627
▁purchased	-8628
▁spreading	-8629
▁stationed	-8630
▁wandering	-8631
▁perceiving	-8632
▁resistance	-8633
▁suspicious	-8634
▁catastrophe	-8635
▁harpooneers	-8636
▁unnecessary	-8637
▁dispositions	-8638
,1	-8639
po	-8640
ARD	-8641
OND	-8642
esc	-8643
gue	-8644
kov	-8645
▁20	-8646
▁Ga	-8647
apes	-8648
cien	-8649
gend	-8650
ignd	-8651
inks	-8652
ront	-8653
▁Cal	-8654
▁Ren	-8655
▁voc	-8656
chers	-8657
count	-8658
erval	-8659
lying	-8660
ovnas	-8661
sibly	-8662
ushes	-8663
▁Pass	-8664
▁Whit	-8665
▁XIII	-8666
▁bald	-8667
▁barg	-8668
▁fund	-8669
▁init	-8670
▁knot	-8671
▁nail	-8672
antime	-8673
bility	-8674
castle	-8675
illing	-8676
istrat	-8677
▁Leave	-8678
▁Tshin	-8679
▁anter	-8680
▁hadnt	-8681
▁issue	-8682
▁revel	-8683
▁roofs	-8684
▁tobac	-8685
oration	-8686
▁Bildad	-8687
▁Please	-8688
▁Wicked	-8689
▁coloss	-8690
▁deemed	-8691
▁divers	-8692
▁hasten	-8693
▁humili	-8694
▁infall	-8695
▁provin	-8696
▁select	-8697
▁sharks	-8698
▁unseen	-8699
emberley	-8700
▁Gryphon	-8701
▁Olympus	-8702
▁carries	-8703
▁doubted	-8704
▁orderly	-8705
▁phantom	-8706
▁prophet	-8707
▁sepulch	-8708
▁skilful	-8709
▁thirsty	-8710
▁American	-8711
▁assassin	-8712
▁calmness	-8713
▁chariots	-8714
▁doubtful	-8715
▁dreaming	-8716
▁fourteen	-8717
▁included	-8718
▁apprehens	-8719
▁encourage	-8720
▁horseback	-8721
▁passersby	-8722
▁pretended	-8723
▁stammered	-8724
▁tormented	-8725
▁expressing	-8726
▁foundation	-8727
▁insignific	-8728
▁lieutenant	-8729
▁questioned	-8730
▁sentiments	-8731
▁temperance	-8732
▁illustrious	-8733
AG	-8734
Ch	-8735
UC	-8736
axe	-8737
boy	-8738
cad	-8739
car	-8740
mir	-8741
▁21	-8742
▁30	-8743
aind	-8744
bons	-8745
ilet	-8746
lest	-8747
post	-8748
▁Asi	-8749
▁doc	-8750
▁fel	-8751
▁fug	-8752
▁lap	-8753
▁map	-8754
▁rug	-8755
erson	-8756
ients	-8757
inger	-8758
othes	-8759
▁ante	-8760
▁bisc	-8761
▁clad	-8762
▁duel	-8763
▁dumb	-8764
▁hing	-8765
▁manu	-8766
▁owed	-8767
▁puts	-8768
▁sack	-8769
▁subd	-8770
▁surv	-8771
▁swam	-8772
▁symb	-8773
atives	-8774
brance	-8775
eryton	-8776
uesday	-8777
▁Could	-8778
▁Dutch	-8779
▁Priam	-8780
▁abund	-8781
▁campf	-8782
▁chill	-8783
▁clung	-8784
▁defin	-8785
▁discl	-8786
▁eagle	-8787
▁fence	-8788
▁holes	-8789
▁ineff	-8790
▁solic	-8791
▁songs	-8792
▁stoop	-8793
▁thigh	-8794
▁union	-8795
▁walks	-8796
▁Basque	-8797
▁Church	-8798
▁Edward	-8799
▁Gentle	-8800
▁Philip	-8801
▁Vulcan	-8802
▁Woking	-8803
▁center	-8804
▁dismay	-8805
▁flowed	-8806
▁gladly	-8807
▁immort	-8808
▁inches	-8809
▁indisp	-8810
▁induce	-8811
▁longed	-8812
▁morrow	-8813
▁nerves	-8814
▁pallor	-8815
▁plains	-8816
▁scound	-8817
▁serene	-8818
▁strife	-8819
▁worlds	-8820
▁Pastrin	-8821
▁commiss	-8822
▁dazzled	-8823
▁ecstasy	-8824
▁essence	-8825
▁extingu	-8826
▁fancies	-8827
▁fearing	-8828
▁lacking	-8829
▁lessons	-8830
▁priests	-8831
▁regards	-8832
▁rewards	-8833
▁serving	-8834
▁shields	-8835
▁strikes	-8836
▁Meantime	-8837
▁afforded	-8838
▁attempts	-8839
▁bulwarks	-8840
▁capacity	-8841
▁converse	-8842
▁frontier	-8843
▁groaning	-8844
▁proposal	-8845
▁rattling	-8846
▁referred	-8847
▁standard	-8848
▁stirring	-8849
▁suitable	-8850
▁vicinity	-8851
▁Pemberley	-8852
▁discussed	-8853
▁eagerness	-8854
▁ferocious	-8855
▁irregular	-8856
▁regiments	-8857
▁resembles	-8858
▁sparkling	-8859
▁spiritual	-8860
▁uncomfort	-8861
▁Phaeacians	-8862
▁atmosphere	-8863
▁complexion	-8864
▁expressive	-8865
▁impatience	-8866
▁personally	-8867
▁pocketbook	-8868
▁provisions	-8869
▁respecting	-8870
▁preparation	-8871
▁respectable	-8872
▁superiority	-8873
▁transferred	-8874
▁wretchedness	-8875
3,	-8876
EP	-8877
ba	-8878
bow	-8879
gon	-8880
ora	-8881
yes	-8882
yth	-8883
▁IS	-8884
Then	-8885
five	-8886
oday	-8887
open	-8888
▁Squ	-8889
▁Yan	-8890
▁nap	-8891
▁rat	-8892
ATION	-8893
achel	-8894
ensed	-8895
izard	-8896
mates	-8897
pires	-8898
▁Conf	-8899
▁Gold	-8900
▁Hist	-8901
▁Mock	-8902
▁Snow	-8903
▁Stop	-8904
▁agon	-8905
▁bagg	-8906
▁econ	-8907
▁fist	-8908
▁gasp	-8909
▁sket	-8910
affold	-8911
estern	-8912
herent	-8913
urable	-8914
▁Cross	-8915
▁Laert	-8916
▁Smoll	-8917
▁accus	-8918
▁bells	-8919
▁brist	-8920
▁climb	-8921
▁dimly	-8922
▁ladys	-8923
▁novel	-8924
▁recon	-8925
▁rigid	-8926
▁spell	-8927
▁stole	-8928
▁sweat	-8929
itively	-8930
ocratic	-8931
▁Busoni	-8932
▁Champs	-8933
▁Fierce	-8934
▁Juliet	-8935
▁Turtle	-8936
▁abomin	-8937
▁advers	-8938
▁bucket	-8939
▁expend	-8940
▁fulfil	-8941
▁growth	-8942
▁hoping	-8943
▁hounds	-8944
▁louder	-8945
▁paraly	-8946
▁repent	-8947
▁robbed	-8948
▁rubbed	-8949
▁stable	-8950
▁tasted	-8951
▁tavern	-8952
▁traged	-8953
▁verses	-8954
▁virgin	-8955
atisfied	-8956
▁Meryton	-8957
▁Spartan	-8958
▁avoided	-8959
▁bandits	-8960
▁drowned	-8961
▁glowing	-8962
▁grounds	-8963
▁marched	-8964
▁planted	-8965
▁praying	-8966
▁reigned	-8967
▁satisfy	-8968
▁seeming	-8969
▁stamped	-8970
▁tobacco	-8971
▁winding	-8972
▁Bingleys	-8973
▁Spernski	-8974
▁appetite	-8975
▁approved	-8976
▁childish	-8977
▁grandeur	-8978
▁measured	-8979
▁scaffold	-8980
▁security	-8981
▁shutters	-8982
▁steadily	-8983
▁wrinkled	-8984
▁Baptistin	-8985
▁conceived	-8986
▁confirmed	-8987
▁converted	-8988
▁extending	-8989
▁honorable	-8990
▁neglected	-8991
▁possesses	-8992
▁prevailed	-8993
▁sorrowful	-8994
▁willingly	-8995
▁insurgents	-8996
▁gravedigger	-8997
▁acquaintances	-8998
▁disappointment	-8999
.1	-9000
32	-9001
WR	-9002
any	-9003
bod	-9004
elf	-9005
jac	-9006
jon	-9007
lld	-9008
noe	-9009
ods	-9010
▁Pi	-9011
Jean	-9012
They	-9013
arme	-9014
lass	-9015
odes	-9016
umet	-9017
▁Ros	-9018
▁XXX	-9019
▁bat	-9020
▁cob	-9021
▁gas	-9022
▁hal	-9023
▁net	-9024
▁omn	-9025
▁sed	-9026
▁tub	-9027
cifix	-9028
icpus	-9029
lyses	-9030
otism	-9031
▁Aute	-9032
▁Fore	-9033
▁Half	-9034
▁Toul	-9035
▁beam	-9036
▁beha	-9037
▁belt	-9038
▁bids	-9039
▁buzz	-9040
▁dece	-9041
▁emph	-9042
▁lung	-9043
▁mute	-9044
▁reco	-9045
▁scor	-9046
▁suck	-9047
▁tram	-9048
▁verd	-9049
athieu	-9050
▁FRIAR	-9051
▁Frank	-9052
▁Heres	-9053
▁Speak	-9054
▁abhor	-9055
▁blaze	-9056
▁entry	-9057
▁fools	-9058
▁grott	-9059
▁liken	-9060
▁petty	-9061
▁plump	-9062
▁punct	-9063
▁rhyth	-9064
▁silly	-9065
▁spoil	-9066
▁surve	-9067
▁weigh	-9068
▁wiped	-9069
▁Thanks	-9070
▁amused	-9071
▁enters	-9072
▁hearth	-9073
▁intern	-9074
▁livres	-9075
▁nostri	-9076
▁parall	-9077
▁statue	-9078
▁stores	-9079
▁Auteuil	-9080
▁Brother	-9081
▁Clerval	-9082
▁baggage	-9083
▁begging	-9084
▁bravest	-9085
▁cracked	-9086
▁flatter	-9087
▁handful	-9088
▁horrors	-9089
▁inherit	-9090
▁inspire	-9091
▁methods	-9092
▁prudent	-9093
▁puzzled	-9094
▁renewed	-9095
▁secured	-9096
▁shortly	-9097
▁stirred	-9098
▁theatre	-9099
▁trained	-9100
▁victims	-9101
▁alarming	-9102
▁anothers	-9103
▁catching	-9104
▁disaster	-9105
▁effected	-9106
▁festival	-9107
▁inconven	-9108
▁polished	-9109
▁respects	-9110
▁selected	-9111
▁smallest	-9112
▁wondered	-9113
▁arranging	-9114
▁ascertain	-9115
▁attendant	-9116
▁divisions	-9117
▁fantastic	-9118
▁tradition	-9119
▁whiteness	-9120
▁battalions	-9121
▁displeased	-9122
▁penetrated	-9123
▁constructed	-9124
▁neighboring	-9125
▁significant	-9126
AIN	-9127
IOL	-9128
ONT	-9129
TOR	-9130
agr	-9131
ano	-9132
oug	-9133
tis	-9134
▁22	-9135
▁Ni	-9136
▁Vl	-9137
▁Wr	-9138
IGHT	-9139
IOLA	-9140
Well	-9141
clay	-9142
dles	-9143
elix	-9144
lope	-9145
olly	-9146
omme	-9147
onic	-9148
ruck	-9149
they	-9150
uity	-9151
when	-9152
▁App	-9153
▁Pip	-9154
▁dew	-9155
▁gor	-9156
▁hay	-9157
▁jer	-9158
▁lun	-9159
▁vow	-9160
ansas	-9161
avour	-9162
comed	-9163
ursed	-9164
▁Aunt	-9165
▁Hear	-9166
▁LADY	-9167
▁WITH	-9168
▁acts	-9169
▁bolt	-9170
▁bron	-9171
▁brut	-9172
▁fain	-9173
▁fasc	-9174
▁limb	-9175
▁mock	-9176
▁nave	-9177
▁nort	-9178
▁ramp	-9179
▁tack	-9180
▁vile	-9181
asting	-9182
haired	-9183
rained	-9184
remony	-9185
uteous	-9186
▁Chuan	-9187
▁Felix	-9188
▁House	-9189
▁Spain	-9190
▁ghast	-9191
▁globe	-9192
▁rings	-9193
▁ropes	-9194
▁selfs	-9195
▁thumb	-9196
▁tread	-9197
▁unacc	-9198
▁widow	-9199
PANIOLA	-9200
▁Excuse	-9201
▁Hatter	-9202
▁Hurrah	-9203
▁Lucien	-9204
▁Merion	-9205
▁Plumet	-9206
▁Tashte	-9207
▁adding	-9208
▁create	-9209
▁cursed	-9210
▁deaths	-9211
▁gloves	-9212
▁hunted	-9213
▁invari	-9214
▁justly	-9215
▁lawyer	-9216
▁midday	-9217
▁overfl	-9218
▁patter	-9219
▁revolt	-9220
▁transf	-9221
▁volume	-9222
▁Charles	-9223
▁Densovs	-9224
▁Harkers	-9225
▁assault	-9226
▁condemn	-9227
▁dangers	-9228
▁floated	-9229
▁gardens	-9230
▁genuine	-9231
▁guarded	-9232
▁nowhere	-9233
▁refusal	-9234
▁torrent	-9235
▁warlike	-9236
▁weighed	-9237
▁ceremony	-9238
▁dropping	-9239
▁fortunes	-9240
▁preceded	-9241
▁rejoiced	-9242
▁replying	-9243
▁speedily	-9244
▁stooping	-9245
▁terribly	-9246
▁vigorous	-9247
▁Aristotle	-9248
▁Noirtiers	-9249
▁assistant	-9250
▁attacking	-9251
▁believing	-9252
▁countries	-9253
▁determine	-9254
▁fireplace	-9255
▁fulfilled	-9256
▁innkeeper	-9257
▁stockings	-9258
▁swineherd	-9259
▁wellknown	-9260
▁HISPANIOLA	-9261
▁apparition	-9262
▁artificial	-9263
▁calculated	-9264
▁detachment	-9265
▁discharged	-9266
▁favourable	-9267
▁objections	-9268
▁tumultuous	-9269
▁Champslyses	-9270
▁endeavoured	-9271
▁hospitality	-9272
▁necessarily	-9273
▁recognizing	-9274
▁subterranean	-9275
▁simultaneously	-9276
Em	-9277
ya	-9278
All	-9279
cat	-9280
pef	-9281
uer	-9282
was	-9283
▁Af	-9284
▁Es	-9285
▁Hs	-9286
▁Up	-9287
ders	-9288
estr	-9289
hile	-9290
ouss	-9291
riel	-9292
ylus	-9293
zard	-9294
▁Jup	-9295
▁Lou	-9296
▁Mus	-9297
▁Ori	-9298
▁Six	-9299
▁ecc	-9300
▁lee	-9301
▁rab	-9302
andtw	-9303
cipit	-9304
ieces	-9305
ilion	-9306
▁Papa	-9307
▁Soph	-9308
▁cens	-9309
▁duck	-9310
▁ejac	-9311
▁fixd	-9312
▁irre	-9313
▁leap	-9314
▁navy	-9315
▁tipt	-9316
▁trib	-9317
▁usur	-9318
icient	-9319
retion	-9320
▁Catal	-9321
▁alley	-9322
▁beams	-9323
▁champ	-9324
▁crims	-9325
▁draws	-9326
▁gover	-9327
▁knoll	-9328
▁pious	-9329
▁poems	-9330
▁shaft	-9331
▁snowy	-9332
▁tramp	-9333
▁Around	-9334
▁Bilbin	-9335
▁Govern	-9336
▁alarms	-9337
▁apples	-9338
▁copper	-9339
▁courts	-9340
▁faster	-9341
▁guided	-9342
▁hammer	-9343
▁judged	-9344
▁needle	-9345
▁ribbon	-9346
▁rivers	-9347
▁sleepy	-9348
▁spared	-9349
cription	-9350
▁Barclay	-9351
▁Pequods	-9352
▁banquet	-9353
▁blazing	-9354
▁blowing	-9355
▁buttons	-9356
▁descent	-9357
▁dresses	-9358
▁frantic	-9359
▁ghastly	-9360
▁healthy	-9361
▁islands	-9362
▁mixture	-9363
▁motives	-9364
▁protest	-9365
▁readers	-9366
▁reserve	-9367
▁sleeves	-9368
▁spectre	-9369
▁sunrise	-9370
▁Highness	-9371
▁Minister	-9372
▁Pastrini	-9373
▁dazzling	-9374
▁deserved	-9375
▁gendarme	-9376
▁likeness	-9377
▁marching	-9378
▁shrugged	-9379
▁stepping	-9380
▁symptoms	-9381
▁Frenchmen	-9382
▁beauteous	-9383
▁enclosure	-9384
▁instances	-9385
▁intending	-9386
▁irritated	-9387
▁operation	-9388
▁prolonged	-9389
▁readiness	-9390
▁regarding	-9391
▁responded	-9392
▁churchyard	-9393
▁confession	-9394
▁diningroom	-9395
▁prodigious	-9396
▁victorious	-9397
▁accordingly	-9398
▁appearances	-9399
▁embarrassed	-9400
▁impressions	-9401
▁inclination	-9402
▁remembrance	-9403
▁resemblance	-9404
▁concentrated	-9405
▁embarrassment	-9406
AND	-9407
iel	-9408
nut	-9409
ski	-9410
tur	-9411
two	-9412
▁dw	-9413
ager	-9414
bear	-9415
born	-9416
cont	-9417
fold	-9418
rire	-9419
ymph	-9420
▁Lav	-9421
▁Rom	-9422
▁Tit	-9423
▁hun	-9424
▁pip	-9425
▁tut	-9426
adays	-9427
aning	-9428
anter	-9429
itect	-9430
lings	-9431
thats	-9432
▁Down	-9433
▁Scar	-9434
▁Scot	-9435
▁Wolf	-9436
▁XVII	-9437
▁bite	-9438
▁bury	-9439
▁cash	-9440
▁cure	-9441
▁hare	-9442
▁mend	-9443
▁riot	-9444
▁twit	-9445
WRENCE	-9446
aneous	-9447
iverse	-9448
mighty	-9449
ridges	-9450
▁based	-9451
▁bliss	-9452
▁evils	-9453
▁local	-9454
▁sable	-9455
▁schol	-9456
▁stake	-9457
▁verge	-9458
uminous	-9459
▁Brujon	-9460
▁Sister	-9461
▁Tybalt	-9462
▁brandy	-9463
▁crowns	-9464
▁deform	-9465
▁drawer	-9466
▁easier	-9467
▁ensued	-9468
▁escort	-9469
▁faults	-9470
▁ghosts	-9471
▁hearty	-9472
▁impass	-9473
▁injury	-9474
▁intrig	-9475
▁knight	-9476
▁learnt	-9477
▁offers	-9478
▁roared	-9479
▁salute	-9480
▁stupef	-9481
▁visits	-9482
▁Germans	-9483
▁Livesey	-9484
▁Towards	-9485
▁Tuesday	-9486
▁approve	-9487
▁crowned	-9488
▁disgust	-9489
▁elderly	-9490
▁frowned	-9491
▁parting	-9492
▁refresh	-9493
▁stature	-9494
▁studies	-9495
▁swaying	-9496
▁Grecians	-9497
▁anteroom	-9498
▁articles	-9499
▁blessing	-9500
▁blushing	-9501
▁brightly	-9502
▁countrys	-9503
▁detached	-9504
▁fragment	-9505
▁mustache	-9506
▁nostrils	-9507
▁propriet	-9508
▁secondly	-9509
▁tenderly	-9510
▁training	-9511
▁uniforms	-9512
▁villages	-9513
▁wrinkles	-9514
▁Gentlemen	-9515
▁adjoining	-9516
▁attentive	-9517
▁civilized	-9518
▁clearness	-9519
▁dispersed	-9520
▁energetic	-9521
▁impressed	-9522
▁personage	-9523
▁shivering	-9524
▁whistling	-9525
▁literature	-9526
▁neighbours	-9527
▁newspapers	-9528
▁reappeared	-9529
▁regimental	-9530
▁resembling	-9531
▁sensations	-9532
▁spectators	-9533
▁travellers	-9534
▁enthusiastic	-9535
▁irresistible	-9536
▁mechanically	-9537
▁instinctively	-9538
▁uncomfortable	-9539
As	-9540
bru	-9541
▁Mt	-9542
aine	-9543
give	-9544
inth	-9545
oofs	-9546
uary	-9547
wart	-9548
▁Ere	-9549
▁Ins	-9550
▁Put	-9551
▁Sal	-9552
▁Ser	-9553
▁XXV	-9554
▁cud	-9555
▁dou	-9556
▁lid	-9557
▁nay	-9558
▁sly	-9559
ammed	-9560
armed	-9561
atted	-9562
conte	-9563
dling	-9564
prise	-9565
stant	-9566
ubber	-9567
uster	-9568
▁Bill	-9569
▁Chan	-9570
▁Comp	-9571
▁Dron	-9572
▁Fort	-9573
▁Read	-9574
▁Stay	-9575
▁Volt	-9576
▁Wang	-9577
▁Winn	-9578
▁York	-9579
▁cage	-9580
▁cere	-9581
▁chur	-9582
▁clen	-9583
▁cove	-9584
▁cuir	-9585
▁joys	-9586
▁leve	-9587
▁rash	-9588
▁shag	-9589
bruary	-9590
estors	-9591
urious	-9592
▁Jesus	-9593
▁Peleg	-9594
▁adorn	-9595
▁chall	-9596
▁coinc	-9597
▁ditch	-9598
▁exile	-9599
▁fates	-9600
▁hasty	-9601
▁heros	-9602
▁rival	-9603
▁roses	-9604
▁seeks	-9605
▁shots	-9606
▁sixth	-9607
▁token	-9608
▁verse	-9609
aration	-9610
renched	-9611
▁Kansas	-9612
▁Temple	-9613
▁barely	-9614
▁behalf	-9615
▁gossip	-9616
▁limits	-9617
▁medium	-9618
▁melted	-9619
▁paving	-9620
▁pearls	-9621
▁prover	-9622
▁shirts	-9623
▁sleigh	-9624
▁traced	-9625
▁tyrann	-9626
▁vainly	-9627
▁wander	-9628
▁warned	-9629
▁weaker	-9630
oussaint	-9631
▁Laertes	-9632
▁authors	-9633
▁balance	-9634
▁confirm	-9635
▁contact	-9636
▁crawled	-9637
▁crimson	-9638
▁delayed	-9639
▁feature	-9640
▁goodbye	-9641
▁kissing	-9642
▁muskets	-9643
▁outward	-9644
▁prefect	-9645
▁strides	-9646
▁sweetly	-9647
▁LAWRENCE	-9648
▁Remember	-9649
▁Tashtego	-9650
▁allusion	-9651
▁consists	-9652
▁diamonds	-9653
▁elephant	-9654
▁monument	-9655
▁overhead	-9656
▁politely	-9657
▁precipit	-9658
▁proceeds	-9659
▁procured	-9660
▁receives	-9661
▁restless	-9662
▁severity	-9663
▁shooting	-9664
▁softened	-9665
▁strained	-9666
▁sufficed	-9667
▁vehicles	-9668
▁continual	-9669
▁deposited	-9670
▁fragments	-9671
▁hereafter	-9672
▁inhabited	-9673
▁matchless	-9674
▁policeman	-9675
▁satisfact	-9676
▁staggered	-9677
▁struggled	-9678
▁sweetness	-9679
▁accomplish	-9680
▁accordance	-9681
▁attentions	-9682
▁benefactor	-9683
▁commanding	-9684
▁resolutely	-9685
▁twentyfour	-9686
withstanding	-9687
▁goodnatured	-9688
▁communicated	-9689
▁determination	-9690
▁inevitability	-9691
OU	-9692
ex	-9693
bec	-9694
oup	-9695
vat	-9696
yre	-9697
▁cy	-9698
▁ma	-9699
agne	-9700
apan	-9701
hess	-9702
shka	-9703
▁FOR	-9704
▁Law	-9705
▁MAN	-9706
▁Off	-9707
▁Ret	-9708
▁hue	-9709
▁obl	-9710
asper	-9711
blest	-9712
eches	-9713
icide	-9714
iddle	-9715
ochus	-9716
ograp	-9717
▁Chao	-9718
▁Comm	-9719
▁Laws	-9720
▁Part	-9721
▁Shes	-9722
▁beer	-9723
▁canv	-9724
▁carb	-9725
▁eyel	-9726
▁hull	-9727
▁inse	-9728
▁loaf	-9729
▁pled	-9730
▁prel	-9731
▁raft	-9732
▁recl	-9733
▁sits	-9734
▁ward	-9735
Picpus	-9736
escend	-9737
ifully	-9738
inkled	-9739
velope	-9740
▁Horse	-9741
▁Maire	-9742
▁brick	-9743
▁brush	-9744
▁dares	-9745
▁hedge	-9746
▁humor	-9747
▁intol	-9748
▁lamps	-9749
▁logic	-9750
▁pilgr	-9751
▁posts	-9752
▁raven	-9753
▁relax	-9754
▁scand	-9755
▁slack	-9756
▁sober	-9757
▁strip	-9758
▁swore	-9759
▁tools	-9760
▁vigor	-9761
▁witch	-9762
vention	-9763
▁Kurgin	-9764
▁Thetis	-9765
▁Yanina	-9766
▁barbar	-9767
▁carved	-9768
▁compet	-9769
▁cudgel	-9770
▁dialog	-9771
▁finest	-9772
▁owners	-9773
▁rebell	-9774
▁repair	-9775
▁retain	-9776
▁shaken	-9777
▁suited	-9778
▁toilet	-9779
▁Jupiter	-9780
▁Rosings	-9781
▁beaming	-9782
▁billows	-9783
▁casting	-9784
▁cuirass	-9785
▁depends	-9786
▁fishery	-9787
▁glories	-9788
▁granted	-9789
▁groaned	-9790
▁halfway	-9791
▁leaping	-9792
▁merrily	-9793
▁mission	-9794
▁notions	-9795
▁railway	-9796
▁scatter	-9797
▁surpass	-9798
▁trusted	-9799
▁February	-9800
▁careless	-9801
▁counting	-9802
▁decisive	-9803
▁disappro	-9804
▁disguise	-9805
▁electric	-9806
▁firmness	-9807
▁garments	-9808
▁involved	-9809
▁pursuing	-9810
▁searched	-9811
▁striving	-9812
▁universe	-9813
▁viscount	-9814
▁welcomed	-9815
▁yielding	-9816
▁Toussaint	-9817
▁appearing	-9818
▁complaint	-9819
▁decidedly	-9820
▁galloping	-9821
▁greatness	-9822
▁ingenious	-9823
▁witnesses	-9824
▁gentleness	-9825
▁peculiarly	-9826
▁positively	-9827
▁succession	-9828
▁whispering	-9829
▁PetitPicpus	-9830
▁arrangement	-9831
▁surrounding	-9832
▁extinguished	-9833
,2	-9834
So	-9835
aos	-9836
cel	-9837
non	-9838
pri	-9839
vil	-9840
▁Ot	-9841
▁Pf	-9842
▁SE	-9843
angs	-9844
atru	-9845
azed	-9846
otic	-9847
pite	-9848
thus	-9849
time	-9850
ulet	-9851
wing	-9852
▁Fif	-9853
▁Leg	-9854
▁Sac	-9855
▁anc	-9856
▁bef	-9857
▁ber	-9858
▁lug	-9859
▁viv	-9860
There	-9861
iethe	-9862
isely	-9863
itute	-9864
osity	-9865
terns	-9866
▁Amid	-9867
▁Call	-9868
▁FROM	-9869
▁Keep	-9870
▁Phry	-9871
▁Tart	-9872
▁bark	-9873
▁desc	-9874
▁desk	-9875
▁doth	-9876
▁idol	-9877
▁keys	-9878
▁levi	-9879
▁ment	-9880
▁orph	-9881
▁pite	-9882
▁shun	-9883
▁sore	-9884
▁sout	-9885
▁unav	-9886
▁wits	-9887
▁Argos	-9888
▁Marys	-9889
▁Seine	-9890
▁brood	-9891
▁cliff	-9892
▁coron	-9893
▁crawl	-9894
▁folks	-9895
▁herds	-9896
▁insen	-9897
▁irony	-9898
▁merch	-9899
▁pages	-9900
▁shops	-9901
▁wills	-9902
ibility	-9903
idently	-9904
ilochus	-9905
▁Hunter	-9906
▁Master	-9907
▁Whitby	-9908
▁analog	-9909
▁arises	-9910
▁blouse	-9911
▁crowds	-9912
▁lesser	-9913
▁madman	-9914
▁modest	-9915
▁overhe	-9916
▁pacing	-9917
▁proofs	-9918
▁recomp	-9919
▁reform	-9920
▁shroud	-9921
▁subord	-9922
▁swayed	-9923
▁trades	-9924
▁veiled	-9925
▁wasted	-9926
▁America	-9927
▁Homeric	-9928
▁bargain	-9929
▁charity	-9930
▁compare	-9931
▁confine	-9932
▁corpses	-9933
▁earthly	-9934
▁	-9935
e	-9936
t	-9937
a	-9938
o	-9939
n	-9940
h	-9941
i	-9942
s	-9943
r	-9944
d	-9945
l	-9946
u	-9947
m	-9948
c	-9949
w	-9950
f	-9951
g	-9952
,	-9953
y	-9954
p	-9955
b	-9956
.	-9957
v	-9958
k	-9959
I	-9960
T	-9961
A	-9962
;	-9963
H	-9964
M	-9965
S	-9966
x	-9967
W	-9968
?	-9969
C	-9970
P	-9971
B	-9972
!	-9973
E	-9974
j	-9975
N	-9976
q	-9977
O	-9978
R	-9979
D	-9980
F	-9981
z	-9982
:	-9983
L	-9984
G	-9985
Y	-9986
V	-9987
J	-9988
"	-9989
1	-9990
U	-9991
0	-9992
K	-9993
2	-9994
X	-9995
3	-9996
